<s>	0
<pad>	0
</s>	0
<unk>	0
.	-3.13285
,	-3.21416
▁the	-3.33867
▁to	-3.44132
▁you	-3.60138
'	-3.63164
▁and	-3.70047
▁a	-3.81494
s	-3.87397
▁it	-4.06787
▁that	-4.16521
▁of	-4.24245
▁is	-4.33698
▁i	-4.5122
▁in	-4.57661
▁your	-4.65262
▁going	-4.66722
/	-4.73274
▁we	-4.74152
▁this	-4.7937
▁so	-4.81301
re	-4.84558
▁on	-4.99591
▁can	-5.09024
▁have	-5.1207
▁with	-5.24979
▁be	-5.27767
m	-5.27796
▁just	-5.29985
▁are	-5.3196
▁want	-5.32295
▁for	-5.35291
▁do	-5.36979
t	-5.40193
▁if	-5.44086
r	-5.49681
▁or	-5.50589
ing	-5.54079
▁up	-5.54284
_	-5.59279
▁like	-5.65454
▁they	-5.67667
▁get	-5.6866
▁what	-5.70053
▁one	-5.71174
▁there	-5.7383
▁as	-5.73972
▁out	-5.76137
▁now	-5.7614
▁little	-5.78443
▁	-5.78977
▁here	-5.80586
▁make	-5.82308
▁go	-5.83941
▁then	-5.85209
▁but	-5.86855
▁not	-5.9222
▁about	-5.93509
▁when	-5.95419
▁all	-5.99418
▁my	-5.99566
▁will	-6.0595
▁how	-6.10275
▁back	-6.11005
▁at	-6.11621
sign	-6.12317
front	-6.12333
gb	-6.12839
▁some	-6.12956
ll	-6.13682
▁right	-6.13922
▁use	-6.14366
▁really	-6.15746
▁down	-6.18327
▁don	-6.19167
▁very	-6.19885
▁because	-6.22949
ed	-6.23641
▁our	-6.24928
▁way	-6.25138
▁from	-6.27989
▁take	-6.29122
2	-6.29301
▁more	-6.3147
ve	-6.33078
▁put	-6.34721
▁an	-6.36115
-	-6.37227
▁good	-6.37376
▁them	-6.38768
▁see	-6.39641
▁into	-6.4039
▁sure	-6.45523
▁bit	-6.48831
how	-6.5127
▁also	-6.51411
data	-6.52441
mediapipe	-6.53394
▁lot	-6.53789
▁need	-6.54823
▁would	-6.56696
▁know	-6.58173
▁over	-6.59096
▁these	-6.6025
▁off	-6.60612
▁kind	-6.64035
d	-6.6495
▁two	-6.6578
▁time	-6.67275
▁where	-6.67734
▁thing	-6.6803
▁other	-6.68882
▁which	-6.70084
▁look	-6.718
?	-6.7479
e	-6.75161
c	-6.76986
▁got	-6.77373
y	-6.78202
▁side	-6.79259
▁keep	-6.79529
▁first	-6.79666
▁again	-6.8028
▁nice	-6.8048
▁let	-6.80559
▁has	-6.81198
▁any	-6.81461
▁actually	-6.8193
▁he	-6.82116
8-	-6.82229
▁come	-6.82304
g	-6.82916
▁different	-6.83917
▁start	-6.84126
▁around	-6.85941
▁hair	-6.87808
▁ball	-6.92525
▁things	-6.92573
▁through	-6.95357
▁her	-6.9597
▁by	-6.97284
▁much	-6.9921
▁people	-7.01191
▁their	-7.03693
▁well	-7.03945
▁hand	-7.04017
nt	-7.04775
▁three	-7.05603
▁talk	-7.06176
▁give	-7.07972
▁something	-7.11736
▁those	-7.13636
▁top	-7.13891
▁water	-7.14338
▁work	-7.15093
23	-7.17116
▁en	-7.17132
▁important	-7.17494
▁next	-7.17911
n	-7.19868
video	-7.20176
▁show	-7.20406
▁even	-7.20692
pose	-7.20746
08	-7.2082
ego	-7.20985
vp	-7.2181
pid	-7.21873
sets	-7.21971
train	-7.22043
features	-7.22439
level	-7.22444
▁asl	-7.22917
;	-7.23141
▁most	-7.23466
▁me	-7.2397
▁once	-7.24381
▁using	-7.26014
▁step	-7.26405
▁doing	-7.26475
▁same	-7.29473
▁might	-7.29883
▁okay	-7.29886
▁body	-7.305
▁find	-7.31772
▁another	-7.34072
er	-7.35248
▁too	-7.35642
▁always	-7.36672
▁could	-7.37333
▁she	-7.37631
▁pull	-7.38229
▁hi	-7.38757
▁line	-7.40193
▁try	-7.40781
▁left	-7.41852
▁was	-7.41865
▁before	-7.43016
▁say	-7.44129
▁great	-7.44652
ly	-7.44711
▁help	-7.45738
▁color	-7.4587
▁part	-7.45935
▁cut	-7.46124
▁than	-7.48265
▁turn	-7.4859
▁think	-7.48653
▁ahead	-7.49605
▁hold	-7.50947
▁should	-7.52249
▁place	-7.54059
▁today	-7.5523
▁head	-7.55444
▁pretty	-7.56252
▁no	-7.56882
▁bring	-7.58455
▁add	-7.60229
▁type	-7.61688
▁may	-7.62304
▁skin	-7.63167
▁maybe	-7.64029
▁front	-7.66314
▁forward	-7.66359
▁end	-7.67206
▁foot	-7.67541
▁long	-7.68094
▁set	-7.68813
▁piece	-7.69443
al	-7.6978
▁his	-7.70317
▁four	-7.70889
▁move	-7.71021
▁open	-7.71741
▁done	-7.72423
▁doesn	-7.72517
i	-7.72745
▁able	-7.73409
▁getting	-7.74752
▁many	-7.75346
▁feel	-7.75794
▁every	-7.75992
▁called	-7.76086
▁leg	-7.7634
▁point	-7.76419
▁hands	-7.77244
▁feet	-7.7861
▁big	-7.79433
▁together	-7.79607
6	-7.80792
▁straight	-7.81292
▁name	-7.8202
▁best	-7.82118
▁inside	-7.82122
▁only	-7.82281
▁2	-7.82366
a	-7.83991
▁each	-7.84091
▁area	-7.84302
▁still	-7.84444
▁paper	-7.84447
▁sometimes	-7.85872
o	-7.86849
▁tell	-7.86928
▁been	-7.87155
▁does	-7.87246
▁him	-7.8778
▁bottom	-7.87828
▁remember	-7.88784
▁1	-7.89323
▁basically	-7.89532
9	-7.89721
▁"	-7.90465
▁after	-7.91028
▁who	-7.91398
5	-7.92212
▁play	-7.92263
▁used	-7.92316
▁probably	-7.93322
▁car	-7.93628
▁usually	-7.94099
▁away	-7.94638
▁making	-7.94882
▁five	-7.95303
▁half	-7.96464
▁face	-7.96466
▁oil	-7.96705
▁small	-7.96801
k	-7.97762
▁goes	-7.97929
▁dog	-7.98272
▁light	-7.98359
▁yourself	-7.98482
▁ready	-7.98513
▁new	-7.98892
▁had	-7.99307
▁lift	-7.99529
▁day	-7.99743
▁coming	-7.9975
▁person	-8.00074
▁hit	-8.00118
▁clean	-8.00253
▁comes	-8.00972
▁talking	-8.01131
▁times	-8.01638
▁position	-8.01838
▁brush	-8.01978
▁high	-8.02091
▁anything	-8.02217
▁looking	-8.02387
▁glass	-8.03041
▁throw	-8.03103
▁everything	-8.03493
▁working	-8.04012
▁white	-8.0453
1	-8.04638
▁easy	-8.05221
▁while	-8.06549
▁course	-8.08319
▁clip	-8.08504
▁better	-8.0877
▁enough	-8.08771
w	-8.08894
l	-8.08922
▁made	-8.12463
▁under	-8.13388
es	-8.14354
▁hard	-8.14714
▁practice	-8.14818
:	-8.15298
▁couple	-8.15781
▁paint	-8.15967
▁center	-8.16071
▁basic	-8.16136
▁push	-8.16157
▁buy	-8.16245
▁size	-8.16332
▁real	-8.16458
▁between	-8.16755
▁being	-8.17407
v	-8.18301
▁dry	-8.18737
▁both	-8.19027
▁fish	-8.19844
▁run	-8.2072
▁number	-8.20721
▁us	-8.21016
▁looks	-8.21137
▁draw	-8.21633
▁03	-8.21677
▁second	-8.21708
▁trying	-8.22135
▁close	-8.22194
▁why	-8.22802
▁either	-8.22806
▁home	-8.2281
/03	-8.23273
▁call	-8.23274
▁room	-8.23329
▁roll	-8.23412
--	-8.23496
▁few	-8.23848
▁were	-8.24198
▁whole	-8.24387
▁flat	-8.24433
▁already	-8.24902
▁whatever	-8.25443
▁eye	-8.25526
▁base	-8.25832
▁tea	-8.26043
▁shot	-8.26062
▁am	-8.26394
▁stick	-8.27193
8	-8.27351
▁last	-8.27532
▁legs	-8.27744
!	-8.28136
▁cause	-8.28197
▁did	-8.2851
▁jump	-8.28841
▁ground	-8.29246
▁kick	-8.30724
▁sort	-8.30976
▁six	-8.3145
▁pick	-8.31452
▁arms	-8.31471
▁middle	-8.3148
▁low	-8.3198
▁alright	-8.32048
having	-8.32068
▁ok	-8.32074
▁stay	-8.32453
▁order	-8.32621
/02	-8.33191
▁02	-8.33208
▁case	-8.33451
▁store	-8.3406
▁fun	-8.34372
▁until	-8.34938
▁far	-8.34985
▁edge	-8.35235
▁means	-8.35398
▁board	-8.36453
▁shoulder	-8.36593
▁outside	-8.3678
3	-8.37018
▁wire	-8.37087
▁green	-8.37314
▁touch	-8.38242
▁apply	-8.3852
▁chest	-8.38521
▁wood	-8.3915
▁knees	-8.39544
"	-8.39768
▁create	-8.40018
▁check	-8.40781
ic	-8.41096
▁drop	-8.4139
▁full	-8.41451
▁example	-8.41607
7	-8.42128
▁own	-8.42788
▁black	-8.42869
▁learn	-8.42912
▁simple	-8.43506
▁floor	-8.43507
▁3	-8.43785
▁game	-8.44008
▁types	-8.44272
on	-8.44673
▁wax	-8.46062
▁comfortable	-8.46096
▁sit	-8.47012
▁underneath	-8.47415
▁neck	-8.47422
▁makes	-8.47941
▁pressure	-8.48087
▁lower	-8.48166
▁moving	-8.48753
▁hip	-8.48773
▁string	-8.49333
▁exhale	-8.4943
as	-8.49529
▁minutes	-8.49556
▁air	-8.50129
▁press	-8.50381
▁shoulders	-8.5045
▁horse	-8.50783
▁5	-8.50981
▁arm	-8.51034
▁someone	-8.5154
▁obviously	-8.52184
▁break	-8.53006
▁weight	-8.53049
▁colors	-8.53228
▁towards	-8.53417
▁red	-8.53933
▁process	-8.54258
▁hot	-8.54306
p	-8.54515
▁plant	-8.54725
▁pieces	-8.54811
▁wear	-8.54818
▁allow	-8.54856
▁simply	-8.55005
▁ways	-8.55083
▁leave	-8.55112
▁old	-8.55662
▁fire	-8.55725
▁taking	-8.55725
▁grab	-8.55726
▁without	-8.55813
▁pass	-8.55816
▁stretch	-8.55895
▁won	-8.56475
▁along	-8.56636
▁fine	-8.56771
▁remove	-8.57046
▁notice	-8.57085
▁bag	-8.57204
▁sand	-8.57209
▁natural	-8.57856
▁mean	-8.57991
▁tip	-8.58009
▁house	-8.58057
▁ten	-8.58141
▁almost	-8.58655
▁milk	-8.58655
▁said	-8.58656
4	-8.59042
▁particular	-8.59342
▁behind	-8.59401
▁never	-8.59402
▁segment	-8.59554
▁o	-8.60213
▁putting	-8.60249
▁onto	-8.60406
▁quick	-8.60787
▁e	-8.61306
▁6	-8.61744
▁knee	-8.6179
▁iron	-8.61898
▁hole	-8.61934
▁ask	-8.6223
▁choose	-8.62483
▁across	-8.62557
-3-	-8.6258
▁inch	-8.62913
4-	-8.62955
▁control	-8.63043
▁definitely	-8.6322
▁stuff	-8.63588
▁love	-8.63886
▁tight	-8.63918
▁switch	-8.64
▁card	-8.64037
▁cup	-8.64067
▁change	-8.64142
▁cover	-8.64474
▁space	-8.64789
▁such	-8.64789
▁cross	-8.64803
▁keeping	-8.64909
j	-8.65209
▁fingers	-8.65502
▁level	-8.65548
▁table	-8.65591
▁reason	-8.65909
▁especially	-8.66381
▁stop	-8.66387
▁twist	-8.6658
▁7	-8.66832
ther	-8.66933
▁cat	-8.67012
▁regular	-8.67938
▁wall	-8.68176
▁amount	-8.6882
▁quit	-8.68821
▁heat	-8.69128
▁catch	-8.69223
▁warm	-8.69251
▁door	-8.69563
0	-8.6962
▁longer	-8.69824
▁design	-8.69863
▁shape	-8.69945
▁idea	-8.70046
▁inhale	-8.7048
▁food	-8.70933
▁hook	-8.71111
▁certain	-8.71261
▁lines	-8.71323
▁angle	-8.71759
▁wheel	-8.71805
▁seven	-8.72165
xd	-8.72249
▁years	-8.72381
ion	-8.72853
f	-8.7294
▁proper	-8.72972
▁guy	-8.73551
▁rest	-8.73594
▁easier	-8.73884
▁running	-8.7389
in	-8.74283
▁4	-8.7459
▁tail	-8.74739
▁whe	-8.74754
▁stand	-8.74936
▁watch	-8.75247
▁8	-8.75253
▁eyes	-8.75501
▁re	-8.75531
▁style	-8.7626
▁beautiful	-8.76454
▁speed	-8.76516
▁gets	-8.77025
▁become	-8.77127
▁tape	-8.77376
▁bat	-8.77518
▁pot	-8.77795
▁coat	-8.77814
▁tool	-8.78187
▁short	-8.78244
▁surface	-8.7831
▁box	-8.787
▁happens	-8.78774
▁walk	-8.78823
▁product	-8.78971
▁glue	-8.79373
▁jack	-8.79955
▁blue	-8.80142
▁life	-8.80144
▁key	-8.80148
▁exercise	-8.8084
▁section	-8.80845
▁direction	-8.80848
ation	-8.80864
en	-8.81151
▁tend	-8.8116
▁job	-8.8178
▁extra	-8.81869
▁dark	-8.81932
▁somebody	-8.81997
▁depending	-8.82021
▁hips	-8.82049
▁bad	-8.82057
▁book	-8.82739
▁lay	-8.82749
▁nail	-8.82755
▁mind	-8.82935
▁block	-8.83328
▁system	-8.83714
▁care	-8.83805
▁track	-8.839
▁massage	-8.84164
▁large	-8.84431
▁power	-8.8485
▁else	-8.84854
▁sugar	-8.84854
▁slide	-8.84886
▁spin	-8.85076
▁pose	-8.85299
▁fabric	-8.85825
▁clay	-8.85832
est	-8.86113
▁less	-8.86258
▁cast	-8.86405
▁button	-8.8673
▁cool	-8.86732
▁free	-8.86743
▁rope	-8.87697
▁boat	-8.87736
▁double	-8.878
▁often	-8.88261
▁helps	-8.88307
▁test	-8.88398
▁cards	-8.88424
▁itself	-8.88795
▁reach	-8.88798
▁fold	-8.89204
▁finish	-8.89208
▁fill	-8.89618
▁image	-8.89766
▁follow	-8.90423
▁pin	-8.90548
▁single	-8.90827
▁pour	-8.9083
▁mix	-8.91136
▁clear	-8.91798
▁wind	-8.918
▁fit	-8.91832
▁money	-8.91857
▁powder	-8.91857
▁release	-8.91857
▁cutting	-8.919
▁eight	-8.92802
▁measure	-8.92808
▁vehicle	-8.9288
▁plastic	-8.929
▁started	-8.9343
▁smooth	-8.93822
▁fast	-8.93857
▁possible	-8.93951
▁exactly	-8.93972
▁completely	-8.93976
▁bird	-8.94
▁corner	-8.94015
▁later	-8.94023
▁bend	-8.9474
▁muscles	-8.94902
▁ever	-8.94925
▁careful	-8.9496
▁frame	-8.95015
▁child	-8.95015
▁slightly	-8.95028
▁loop	-8.95087
▁forth	-8.95452
▁though	-8.95635
b	-8.95702
▁g	-8.95711
▁spine	-8.95851
or	-8.96112
▁finger	-8.96196
▁pop	-8.96471
it	-8.96914
▁night	-8.97166
▁hundred	-8.97177
▁least	-8.97177
▁thumb	-8.97271
▁works	-8.9775
▁business	-8.98276
▁starting	-8.98295
▁against	-8.98359
▁begin	-8.98389
wx	-8.99411
▁picture	-8.99546
▁smaller	-8.99567
ness	-8.99586
▁guys	-8.99819
ers	-8.99862
▁build	-9.00106
▁belt	-9.00517
▁pay	-9.00525
▁movement	-9.00725
▁school	-9.01647
▁knife	-9.01648
▁nothing	-9.01648
▁slowly	-9.01702
▁matter	-9.01713
▁problem	-9.01876
▁painting	-9.02579
▁deep	-9.02671
▁properly	-9.02877
▁root	-9.03032
▁print	-9.033
▁match	-9.03521
▁c	-9.03683
▁recommend	-9.03743
▁ear	-9.0384
xa	-9.03872
th	-9.04032
able	-9.04469
▁wash	-9.04574
▁pair	-9.04722
▁deal	-9.05038
▁01	-9.05175
▁lip	-9.05444
▁sides	-9.05601
▁edges	-9.05724
▁continue	-9.06213
▁soft	-9.0625
▁perfect	-9.06268
▁man	-9.06282
▁everybody	-9.06326
▁since	-9.06327
▁teeth	-9.06328
▁main	-9.06331
▁club	-9.0664
▁pattern	-9.06648
▁wide	-9.07114
▁round	-9.07332
▁slow	-9.07408
▁length	-9.07526
▁instead	-9.07531
▁sitting	-9.0755
▁swing	-9.07579
▁training	-9.07688
▁bar	-9.07825
▁difference	-9.07833
▁technique	-9.07889
▁un	-9.08183
▁eat	-9.08365
▁fact	-9.08733
▁enjoy	-9.08737
/01	-9.08749
▁collar	-9.08751
▁mirror	-9.08751
▁twenty	-9.08751
▁local	-9.08751
▁motion	-9.09104
▁golf	-9.09651
▁handle	-9.09659
le	-9.0988
▁drink	-9.09947
▁p	-9.09964
▁found	-9.09982
▁heavy	-9.09985
▁belly	-9.09997
▁fall	-9.10025
▁t	-9.10043
▁wrist	-9.10373
▁consider	-9.1122
▁several	-9.11235
▁camera	-9.11236
▁nose	-9.11442
▁form	-9.11606
el	-9.12207
▁takes	-9.1222
▁balance	-9.12377
▁common	-9.12441
▁information	-9.12501
▁brown	-9.1251
▁customer	-9.12952
▁punch	-9.13339
▁hoop	-9.13375
▁coffee	-9.13783
▁square	-9.13783
▁however	-9.13798
▁wet	-9.13843
▁focus	-9.1447
▁garden	-9.14679
▁needs	-9.1485
▁teach	-9.14984
▁normal	-9.15023
▁easily	-9.15082
▁energy	-9.15087
▁didn	-9.15545
▁blade	-9.15631
▁parts	-9.15701
▁strong	-9.16256
▁flow	-9.16356
▁series	-9.16398
▁third	-9.16398
▁figure	-9.16493
bo	-9.16537
▁inches	-9.16577
▁computer	-9.16948
▁starts	-9.17189
x	-9.17229
▁b	-9.17474
an	-9.17597
▁chair	-9.17731
▁wrong	-9.17731
▁safety	-9.17732
▁rice	-9.17734
▁bike	-9.17753
▁playing	-9.17766
▁products	-9.18083
▁group	-9.18346
▁ring	-9.18513
ous	-9.18519
▁s	-9.18795
▁problems	-9.1881
▁days	-9.19053
▁blanket	-9.19082
▁curl	-9.19136
▁happen	-9.19145
▁de	-9.19311
▁larger	-9.19667
▁wine	-9.19786
▁professional	-9.20389
▁spot	-9.20394
▁support	-9.20452
▁spray	-9.20452
▁breath	-9.20469
▁ice	-9.20792
▁areas	-9.21267
▁drive	-9.21342
▁garlic	-9.21841
▁dur	-9.22222
3-	-9.22228
▁decide	-9.22901
▁drawing	-9.2292
▁toes	-9.23093
▁blood	-9.2325
▁contact	-9.2325
▁attention	-9.2325
▁tire	-9.23996
▁10	-9.2403
▁leaves	-9.24491
▁rub	-9.24677
▁fresh	-9.24678
▁yellow	-9.24678
▁chicken	-9.24679
▁wrap	-9.24683
▁post	-9.24728
ter	-9.24744
▁sun	-9.24794
▁drill	-9.2505
▁kids	-9.25059
▁towel	-9.25452
▁stone	-9.25465
▁protect	-9.25659
▁demonstrate	-9.25731
▁plants	-9.25959
▁score	-9.26128
▁d	-9.2613
ge	-9.26132
▁field	-9.26197
▁cap	-9.26254
▁elbow	-9.26993
▁read	-9.27024
▁hear	-9.27115
▁hours	-9.27289
▁actual	-9.2754
▁family	-9.27598
▁orange	-9.27598
▁hitting	-9.27647
▁tooth	-9.27682
▁higher	-9.27824
▁tools	-9.28019
▁circle	-9.28511
▁lips	-9.28697
▁heart	-9.28905
▁thin	-9.28943
lnu	-9.29089
▁world	-9.29091
▁chocolate	-9.29096
▁layer	-9.2944
▁fat	-9.29658
h	-9.29665
▁thread	-9.30008
▁seat	-9.30058
at	-9.30112
▁word	-9.30114
▁apart	-9.306
▁character	-9.30605
▁gently	-9.30606
▁medium	-9.30606
▁yoga	-9.30606
▁opposite	-9.30607
▁quickly	-9.30723
▁oh	-9.30926
▁k	-9.31026
▁grow	-9.311
▁chain	-9.3159
▁shoot	-9.31678
▁heel	-9.31746
04	-9.31815
▁thick	-9.32066
▁waist	-9.32144
▁further	-9.32149
▁cold	-9.32164
▁foundation	-9.32166
▁upper	-9.32323
ar	-9.32422
▁mark	-9.32525
▁standing	-9.32843
▁serve	-9.33005
▁within	-9.33079
com	-9.33207
▁comb	-9.33601
▁worry	-9.33709
▁plate	-9.33714
▁tank	-9.33716
▁ink	-9.34561
▁flavor	-9.34593
▁blend	-9.34611
▁temperature	-9.34775
ur	-9.34981
▁discuss	-9.35088
▁loose	-9.35167
▁difficult	-9.35175
▁above	-9.35299
▁showing	-9.35459
▁art	-9.35568
▁players	-9.35652
▁mat	-9.35752
▁burn	-9.35775
▁rid	-9.35775
▁rock	-9.36042
▁treat	-9.36185
▁pre	-9.36203
▁pushing	-9.36598
ity	-9.36618
▁avoid	-9.36694
up	-9.36878
▁machine	-9.36907
▁juice	-9.36908
pz	-9.36912
▁(	-9.36914
▁anywhere	-9.36919
▁points	-9.37342
▁material	-9.38109
▁live	-9.38115
▁sell	-9.38133
▁year	-9.38149
▁needle	-9.38233
▁wanted	-9.38259
ting	-9.38453
▁entire	-9.38485
▁squeeze	-9.38546
▁specific	-9.38548
▁grip	-9.38559
▁setting	-9.38601
▁harder	-9.38769
▁flowers	-9.38809
ch	-9.38933
us	-9.39023
u	-9.3934
▁15	-9.39632
▁trick	-9.3969
▁knot	-9.39792
▁f	-9.39867
▁cleaning	-9.40125
▁prevent	-9.40196
▁favorite	-9.40213
▁children	-9.40214
▁filter	-9.40214
▁lid	-9.40215
▁typically	-9.4023
▁everyone	-9.4024
▁generally	-9.40255
▁rod	-9.40281
▁film	-9.40298
▁faster	-9.40315
xg	-9.40345
▁interesting	-9.40363
nw	-9.40379
▁bigger	-9.40408
ce	-9.40621
▁party	-9.41008
▁v	-9.4144
▁bone	-9.41615
▁save	-9.41835
▁flip	-9.419
▁project	-9.41908
▁rather	-9.41908
▁understand	-9.41911
▁battery	-9.4194
▁soon	-9.42508
▁turning	-9.42918
▁thinking	-9.42924
▁write	-9.43094
▁buying	-9.43301
▁minute	-9.43316
▁similar	-9.43568
▁player	-9.43591
▁bunch	-9.43599
▁basket	-9.43631
▁guitar	-9.43632
▁necessarily	-9.43635
▁20	-9.43668
▁yes	-9.43722
."	-9.43853
li	-9.44383
▁purpose	-9.45037
▁mouth	-9.45386
▁baby	-9.45387
▁hello	-9.45387
▁flash	-9.45388
▁dance	-9.45393
ies	-9.45586
▁words	-9.46027
▁core	-9.4608
▁holes	-9.46609
▁cloth	-9.46768
▁flower	-9.4699
▁experience	-9.47035
▁lead	-9.4706
▁music	-9.47176
▁toilet	-9.47183
▁climbing	-9.47261
▁butter	-9.47533
▁tent	-9.48284
▁rolling	-9.48557
▁team	-9.48571
▁service	-9.48676
▁situation	-9.48698
▁degree	-9.48752
▁fair	-9.48988
▁self	-9.4899
▁steel	-9.48993
▁makeup	-9.49327
▁trim	-9.49494
▁thought	-9.49771
wr	-9.49834
▁mask	-9.50157
▁relax	-9.50219
▁personal	-9.50259
▁grind	-9.50325
um	-9.50362
▁strap	-9.50611
▁cream	-9.50723
▁distance	-9.50842
▁market	-9.50843
▁saw	-9.50851
giving	-9.50854
age	-9.50897
▁smoke	-9.52203
▁detail	-9.52316
▁dollars	-9.52334
▁land	-9.52478
▁kinds	-9.52539
▁sound	-9.52542
▁snow	-9.52722
▁pencil	-9.52729
▁women	-9.52729
▁treatment	-9.52735
▁pen	-9.52759
▁unit	-9.52954
▁gone	-9.52964
▁finished	-9.53101
are	-9.53507
ry	-9.53643
▁wearing	-9.53789
se	-9.54199
▁tips	-9.54238
▁sleep	-9.54242
cg	-9.54354
▁band	-9.54433
▁hang	-9.54582
▁guide	-9.54646
▁earlier	-9.54652
▁return	-9.54652
▁thirty	-9.54652
▁fluid	-9.54652
bh	-9.54653
▁lose	-9.54656
▁seconds	-9.54658
▁beginning	-9.54658
▁salt	-9.54704
ia	-9.54773
▁hat	-9.54866
▁lighter	-9.5496
▁ones	-9.55135
▁steps	-9.55184
▁bra	-9.5519
▁scissors	-9.55246
▁lock	-9.55879
▁shoes	-9.56038
▁steam	-9.56141
▁stitch	-9.56172
▁seen	-9.56413
▁spring	-9.56466
▁per	-9.56466
▁palm	-9.56486
▁sharp	-9.56598
▁chance	-9.56614
▁stance	-9.56617
▁deck	-9.56622
▁load	-9.56634
▁height	-9.56635
▁photography	-9.5664
▁kite	-9.5674
▁bowl	-9.56798
▁win	-9.56823
▁soil	-9.57388
▁letters	-9.57815
▁correct	-9.58114
▁carry	-9.58246
▁fashion	-9.58401
▁window	-9.58558
▁negative	-9.58613
▁raw	-9.58613
▁maintain	-9.58616
▁worth	-9.58617
▁standard	-9.58618
▁suit	-9.58641
▁throughout	-9.58658
▁degrees	-9.58876
▁depends	-9.58892
▁taste	-9.58947
▁books	-9.59071
▁wave	-9.59092
ha	-9.59183
▁co	-9.59365
▁video	-9.59805
▁cook	-9.59991
▁special	-9.60011
▁pack	-9.60229
ical	-9.60265
▁ends	-9.60406
▁extend	-9.60454
▁dirt	-9.60539
▁hop	-9.60562
▁safe	-9.60592
zz	-9.60634
▁week	-9.60635
▁slip	-9.60644
▁foam	-9.60653
▁instance	-9.60653
▁equipment	-9.60654
▁leather	-9.6067
▁pitcher	-9.60745
▁believe	-9.61097
▁opening	-9.61199
▁jeans	-9.61332
il	-9.62273
)	-9.62442
▁throwing	-9.62577
▁count	-9.62608
▁tension	-9.62669
▁drain	-9.62729
▁bucket	-9.62737
▁major	-9.62737
▁dead	-9.62737
▁facing	-9.62737
▁smell	-9.62742
▁came	-9.62759
▁dish	-9.62764
▁normally	-9.62831
▁force	-9.62898
▁feeling	-9.63195
▁building	-9.63478
▁pro	-9.63902
▁pan	-9.64076
to	-9.64099
▁phone	-9.64171
la	-9.64218
▁sign	-9.64348
▁separate	-9.6467
▁shop	-9.64859
▁tennis	-9.64864
▁route	-9.64865
▁yeah	-9.64865
▁partner	-9.64865
▁tie	-9.64865
▁super	-9.64867
▁gray	-9.64903
ought	-9.64909
▁bulb	-9.64933
▁model	-9.64981
▁skills	-9.65573
tu	-9.65776
▁walking	-9.65802
▁friends	-9.6598
▁stores	-9.66018
▁strip	-9.66117
▁says	-9.66208
▁learning	-9.6621
is	-9.66565
▁hurt	-9.66623
▁travel	-9.66642
ping	-9.66643
ish	-9.66666
ie	-9.6684
▁adjust	-9.6702
▁race	-9.67038
▁near	-9.6704
▁wonderful	-9.67041
▁city	-9.67055
▁mentioned	-9.67084
▁posture	-9.67102
ul	-9.6725
not	-9.67259
▁feels	-9.67723
▁-	-9.67737
ive	-9.68082
▁plane	-9.68301
▁develop	-9.68935
▁tuck	-9.69053
▁boom	-9.6911
▁vari	-9.69234
▁defense	-9.69261
▁joe	-9.69261
▁texture	-9.69261
▁dust	-9.69262
▁gift	-9.69263
▁range	-9.69266
▁whenever	-9.6929
▁somewhere	-9.69294
▁brake	-9.69416
▁client	-9.69426
▁riding	-9.69814
13	-9.69818
▁nicely	-9.70315
▁dress	-9.70879
▁questions	-9.7106
▁places	-9.71129
▁peel	-9.71194
▁select	-9.7131
▁men	-9.71373
▁bed	-9.71507
▁electric	-9.71518
qgtjljynm	-9.71533
▁account	-9.71533
▁fake	-9.71533
▁fix	-9.71533
▁shampoo	-9.71533
▁spread	-9.71533
▁available	-9.71534
▁skirt	-9.71534
▁solid	-9.71535
▁story	-9.71537
▁bright	-9.71542
▁credit	-9.71544
▁stage	-9.71554
▁anyway	-9.71578
gz	-9.71587
▁healthy	-9.71635
hn	-9.71639
▁plan	-9.71641
▁cake	-9.71713
▁muscle	-9.71777
▁relaxed	-9.71777
▁past	-9.71892
▁rinse	-9.71939
▁bent	-9.7218
▁30	-9.72472
▁j	-9.72705
▁terms	-9.72886
less	-9.73098
line	-9.73202
▁explain	-9.73654
▁general	-9.73809
▁determine	-9.73859
▁guard	-9.73859
▁happy	-9.73859
▁liquid	-9.73859
▁mascara	-9.73859
▁myself	-9.73859
▁rubber	-9.73859
▁transfer	-9.73859
▁chose	-9.73859
▁cheese	-9.73859
rwy	-9.73862
▁portion	-9.73862
▁bid	-9.73924
▁seal	-9.7401
▁option	-9.74091
ym	-9.7411
▁backwards	-9.74234
4-3-	-9.74266
▁based	-9.74463
▁balls	-9.74503
▁tone	-9.75088
▁went	-9.75119
ant	-9.75329
▁beer	-9.75555
▁states	-9.75773
▁meet	-9.75834
▁vegetables	-9.75897
▁fly	-9.75923
▁star	-9.76093
▁blow	-9.76118
▁lifting	-9.76142
▁attack	-9.76171
ez	-9.76188
▁strength	-9.76224
▁taken	-9.76238
▁rain	-9.7624
▁value	-9.7624
▁vodka	-9.7624
▁gear	-9.7624
▁lemon	-9.7624
▁zone	-9.76243
pa	-9.76245
▁width	-9.76259
▁click	-9.76281
▁website	-9.76532
▁effect	-9.76547
▁dip	-9.76572
▁vegetable	-9.76585
▁pad	-9.76604
▁cooking	-9.76706
▁thank	-9.76845
▁aren	-9.77349
▁tap	-9.77552
ne	-9.77719
▁handy	-9.7798
▁lean	-9.78281
▁complete	-9.78528
▁damage	-9.78561
ta	-9.78583
▁appropriate	-9.78679
▁coconut	-9.78679
▁creating	-9.78679
▁otherwise	-9.78679
▁repair	-9.78679
▁snake	-9.78679
▁variety	-9.78679
▁must	-9.78683
▁winter	-9.78691
▁inner	-9.78692
▁wipe	-9.78731
▁jab	-9.78924
▁method	-9.79006
▁combination	-9.79016
▁tissue	-9.79031
▁screw	-9.79042
▁breathe	-9.79067
▁girl	-9.79072
▁stroke	-9.79078
▁date	-9.79099
▁tree	-9.79104
▁clock	-9.79126
▁elements	-9.79178
▁tall	-9.79715
▁beat	-9.79847
▁br	-9.79983
ate	-9.80527
be	-9.80783
▁secure	-9.80989
▁condition	-9.81053
afy	-9.81116
▁chop	-9.81168
▁company	-9.81179
▁dribble	-9.81179
▁guess	-9.81179
▁microwave	-9.81179
▁sweep	-9.81179
▁themselves	-9.81179
▁cord	-9.8118
▁aware	-9.8118
▁acid	-9.81181
▁hopefully	-9.81183
▁baseball	-9.81184
▁true	-9.81204
▁early	-9.81305
▁pet	-9.81316
ling	-9.81348
▁environment	-9.81379
▁slice	-9.81425
▁oppos	-9.81587
▁bottle	-9.81627
▁con	-9.8184
▁heels	-9.82053
▁note	-9.82224
▁ideas	-9.824
94	-9.82735
ment	-9.82779
▁cups	-9.82781
▁dr	-9.82869
cause	-9.82926
▁closer	-9.83232
▁movements	-9.83298
▁state	-9.8333
▁provide	-9.83688
▁perhaps	-9.83743
▁below	-9.83743
▁jewelry	-9.83743
▁moisture	-9.83743
▁bounce	-9.83745
▁fret	-9.83749
▁price	-9.8375
zv	-9.83759
▁rule	-9.8381
".	-9.83947
▁shirt	-9.8395
▁writing	-9.83959
▁pink	-9.83989
▁improv	-9.84075
▁mold	-9.84118
▁age	-9.84201
▁shadow	-9.84222
▁question	-9.84281
▁hour	-9.8429
▁dollar	-9.8429
▁learned	-9.84553
▁wing	-9.84785
uc	-9.84948
▁meaning	-9.85142
▁adding	-9.85166
sk	-9.85176
▁breaking	-9.85213
▁pressing	-9.85256
▁upon	-9.85334
▁saying	-9.85488
▁spend	-9.85971
▁access	-9.86373
ozjhe	-9.86374
▁affect	-9.86375
▁chord	-9.86375
▁plus	-9.86375
▁purchase	-9.86375
▁tripod	-9.86375
▁court	-9.86375
▁beak	-9.86376
▁trap	-9.86376
▁flour	-9.86377
▁quality	-9.86379
▁sorry	-9.8638
▁unless	-9.86388
▁north	-9.864
▁stock	-9.86424
▁patient	-9.86425
▁wedding	-9.86508
▁gold	-9.86526
▁american	-9.86729
▁mixed	-9.86887
▁ankle	-9.8694
▁map	-9.86942
▁glove	-9.86972
▁toward	-9.86998
▁watching	-9.87585
▁da	-9.87982
directly	-9.88021
▁picking	-9.88253
one	-9.8838
▁ears	-9.88441
q	-9.88749
pd	-9.88891
▁lighting	-9.88995
▁rough	-9.89009
▁individual	-9.89016
▁florida	-9.89077
▁opponent	-9.89077
▁sink	-9.89077
▁squat	-9.89077
▁shut	-9.89077
▁thousand	-9.8909
▁photographer	-9.89119
▁counter	-9.89215
▁w	-9.89703
▁extension	-9.89707
▁strike	-9.89707
▁program	-9.89738
▁covered	-9.89765
▁closed	-9.89774
▁cleaner	-9.89809
▁beads	-9.90453
▁tim	-9.90678
ted	-9.90777
ac	-9.9105
▁par	-9.9119
te	-9.91361
▁effective	-9.918
▁suggest	-9.91838
▁chin	-9.91845
▁flush	-9.91855
▁shake	-9.91855
▁shrimp	-9.91855
▁litter	-9.91856
▁paddle	-9.91857
▁cable	-9.9189
▁essentially	-9.91896
▁clothes	-9.91904
▁cow	-9.91905
▁tighten	-9.9191
ier	-9.9192
▁straighten	-9.9198
▁naturally	-9.92079
em	-9.92229
▁m	-9.92236
▁soda	-9.92372
ble	-9.92538
▁action	-9.92542
▁yard	-9.92579
▁sheet	-9.92588
▁9	-9.92788
▁wheels	-9.93099
▁19	-9.93119
▁spots	-9.93278
side	-9.9369
▁record	-9.93734
▁classic	-9.93932
▁known	-9.93988
▁wait	-9.94311
▁office	-9.94358
▁master	-9.94512
▁health	-9.94601
▁answer	-9.94712
▁audition	-9.94712
▁built	-9.94712
▁infection	-9.94712
▁road	-9.94712
▁speech	-9.94712
▁supply	-9.94712
▁sky	-9.94723
▁1/2	-9.94725
▁oven	-9.94744
ut	-9.94765
▁strings	-9.94852
▁hope	-9.94879
▁st	-9.94886
ary	-9.9491
▁certainly	-9.94914
▁speaking	-9.95007
▁owner	-9.95098
▁pat	-9.95126
▁created	-9.95329
▁sizes	-9.95378
▁turns	-9.95403
▁container	-9.95521
▁shoe	-9.95577
▁creates	-9.95712
▁kinda	-9.95795
▁shower	-9.96203
wu	-9.96346
▁hey	-9.97462
▁corners	-9.97533
▁plug	-9.97567
▁raise	-9.9759
▁exact	-9.97595
▁firm	-9.97615
▁curve	-9.97636
▁present	-9.97637
▁popular	-9.97644
▁excess	-9.97647
▁expert	-9.97651
▁application	-9.97653
▁daily	-9.97653
▁doctor	-9.97653
▁easies	-9.97653
▁english	-9.97653
▁tractor	-9.97653
▁lamp	-9.97657
bl	-9.97663
▁coverage	-9.97682
ally	-9.97728
▁quarter	-9.97732
▁fan	-9.97736
▁rat	-9.97762
▁keeps	-9.98018
osp	-9.98034
▁bones	-9.98308
▁mess	-9.98313
ian	-9.98419
▁goal	-9.9843
▁breathing	-9.98513
▁direct	-9.98887
▁foods	-9.99039
▁sew	-10.0013
▁strokes	-10.0019
▁liner	-10.002
▁options	-10.0032
▁finding	-10.0035
▁attach	-10.0045
▁pitch	-10.0052
▁sweet	-10.0067
▁austin	-10.0068
▁fruit	-10.0068
▁increase	-10.0068
▁period	-10.0068
▁possibly	-10.0068
▁spoon	-10.0068
▁target	-10.0068
▁yet	-10.0068
▁search	-10.0068
▁baking	-10.0069
▁swimming	-10.0069
▁scale	-10.0069
▁sense	-10.0069
▁reduce	-10.0069
▁braid	-10.0069
▁specifically	-10.0069
▁grass	-10.007
▁metal	-10.007
▁defender	-10.0073
▁workout	-10.0074
▁tiny	-10.0076
▁interested	-10.0082
▁perfectly	-10.0083
▁forty	-10.0091
id	-10.0095
▁00	-10.01
▁lightly	-10.0113
▁medica	-10.0123
▁fla	-10.0148
▁class	-10.0149
▁repeat	-10.0162
▁ingredients	-10.0177
▁mixing	-10.0188
▁elbows	-10.0195
▁abs	-10.0199
▁bubbles	-10.0203
_5	-10.0207
▁act	-10.0208
tally	-10.0212
▁likely	-10.0215
he	-10.0241
▁pages	-10.025
na	-10.0272
the	-10.0276
▁added	-10.0289
ten	-10.0323
▁listen	-10.034
▁topic	-10.0341
▁lengthen	-10.0343
▁produce	-10.0346
jab	-10.0351
▁trail	-10.0374
▁prefer	-10.0381
vmpi	-10.0381
mkkk	-10.0381
▁queen	-10.0381
uveqzte	-10.0381
▁fifteen	-10.0381
▁internet	-10.0381
▁dancing	-10.0381
▁zoom	-10.0381
▁pliers	-10.0381
▁immediately	-10.0382
▁dating	-10.0382
▁extremely	-10.0383
▁shell	-10.0383
xv	-10.0387
▁windows	-10.039
▁choos	-10.0416
▁dealer	-10.0418
pc	-10.0432
▁took	-10.0433
tract	-10.0439
▁tricks	-10.0458
▁non	-10.0459
▁oily	-10.0472
▁pi	-10.0481
▁becomes	-10.0481
▁object	-10.0489
▁animal	-10.0491
op	-10.0492
▁train	-10.0515
▁shapes	-10.0536
▁toss	-10.0538
▁outfit	-10.0551
▁forget	-10.0552
▁issues	-10.0568
▁touching	-10.059
do	-10.0593
▁techniques	-10.0607
▁seeing	-10.0612
▁sticks	-10.0637
▁aside	-10.0651
▁shots	-10.0652
▁list	-10.066
tion	-10.0676
▁prepare	-10.0702
▁moment	-10.0703
▁bacon	-10.0703
▁percent	-10.0703
▁pool	-10.0703
▁twelve	-10.0703
▁previous	-10.0703
▁split	-10.0703
▁kitchen	-10.0703
▁morning	-10.0704
▁laptop	-10.0704
▁ninety	-10.0704
▁neat	-10.0704
▁wand	-10.0704
you	-10.0705
▁studio	-10.0706
▁please	-10.0707
ver	-10.0707
▁protection	-10.0709
▁ride	-10.071
▁meat	-10.0719
▁involved	-10.072
▁attached	-10.0725
ful	-10.0728
▁cooked	-10.0735
/00	-10.0751
▁13	-10.0756
per	-10.0756
▁blocks	-10.0757
▁aid	-10.0759
▁games	-10.0775
pv	-10.078
ize	-10.0787
▁sha	-10.0792
▁command	-10.0818
▁items	-10.082
▁ounce	-10.0831
▁covering	-10.087
▁late	-10.0934
▁connect	-10.0975
▁boil	-10.0997
▁la	-10.1019
▁birds	-10.1023
▁sauce	-10.1036
vlpo	-10.1037
sgrpijksw	-10.1037
▁crown	-10.1037
▁driving	-10.1037
▁silver	-10.1037
▁trouble	-10.1037
▁equal	-10.1037
▁john	-10.1037
▁interview	-10.1037
▁napkin	-10.1037
▁acne	-10.1037
▁trade	-10.1037
▁lipstick	-10.1037
▁beef	-10.1038
▁spinning	-10.1038
▁town	-10.1039
▁send	-10.104
▁background	-10.104
▁advanced	-10.1044
▁leaf	-10.1045
▁thicker	-10.1051
▁numbers	-10.1054
▁deeper	-10.1056
▁clothing	-10.1112
▁picked	-10.1156
▁40	-10.116
▁benefits	-10.1164
▁hinge	-10.1164
▁seems	-10.1187
▁letter	-10.1199
▁moves	-10.1245
▁sea	-10.1255
ine	-10.1316
▁flex	-10.1358
▁soak	-10.1361
▁engine	-10.1364
▁original	-10.1376
▁sp	-10.1379
▁occur	-10.1381
▁absorb	-10.1382
▁accurate	-10.1382
▁afraid	-10.1382
▁although	-10.1382
▁cotton	-10.1382
▁eleven	-10.1382
▁nurse	-10.1382
▁pocket	-10.1382
▁public	-10.1382
▁schedule	-10.1382
▁screen	-10.1382
▁soccer	-10.1382
▁stomach	-10.1382
▁texas	-10.1382
▁basis	-10.1382
▁tiger	-10.1382
▁clamp	-10.1382
▁portal	-10.1383
▁absolutely	-10.1383
▁dice	-10.1384
▁san	-10.1387
▁correctly	-10.1392
▁45	-10.1396
▁tongue	-10.1423
ri	-10.1432
▁pants	-10.1437
▁onion	-10.1439
ave	-10.1451
▁students	-10.1453
▁term	-10.1484
fe	-10.1488
▁printing	-10.1502
rk	-10.1514
▁anti	-10.1516
▁circles	-10.152
▁results	-10.1521
▁brand	-10.1521
▁cost	-10.1523
▁eggs	-10.1528
▁issue	-10.1529
▁page	-10.153
ese	-10.1551
▁cute	-10.1556
ped	-10.1559
▁blades	-10.1587
▁stays	-10.1597
▁gloves	-10.1658
▁ski	-10.1707
▁bow	-10.1708
▁stress	-10.1718
▁180	-10.1738
▁audience	-10.1739
▁budget	-10.1739
▁crab	-10.1739
▁espresso	-10.1739
▁excellent	-10.1739
▁expensive	-10.1739
▁fifty	-10.1739
▁gentle	-10.1739
▁japan	-10.1739
▁location	-10.1739
▁necessary	-10.1739
▁pepper	-10.1739
▁sponge	-10.1739
▁therapy	-10.1739
▁beauty	-10.1739
▁tune	-10.1739
▁stability	-10.1739
▁eventually	-10.174
▁heavier	-10.174
▁gain	-10.174
▁cage	-10.1742
▁dial	-10.1743
▁bacteria	-10.1751
▁24	-10.1757
▁dropping	-10.1763
▁beach	-10.1768
▁telling	-10.1773
▁supplies	-10.1774
▁50	-10.1822
▁sections	-10.1824
▁growing	-10.1833
▁net	-10.1846
▁months	-10.186
▁dis	-10.1868
man	-10.1894
▁choice	-10.1897
▁ju	-10.1917
▁14	-10.1935
▁seam	-10.195
▁reasons	-10.1955
▁donat	-10.1971
▁circula	-10.2003
▁sticking	-10.2008
lo	-10.2031
no	-10.204
▁ga	-10.2043
▁pads	-10.2057
▁r	-10.2064
▁shift	-10.2068
▁weights	-10.2085
▁stain	-10.209
▁gloss	-10.2097
▁bulbs	-10.2101
▁corn	-10.2102
▁final	-10.2105
▁swim	-10.2109
▁crease	-10.2109
▁familiar	-10.2109
▁represent	-10.2109
▁research	-10.2109
▁stuck	-10.2109
▁telescope	-10.2109
▁contrast	-10.2109
▁york	-10.2109
▁foil	-10.2109
▁fence	-10.211
▁fits	-10.2111
▁path	-10.2111
▁river	-10.2111
▁ceiling	-10.2111
▁gym	-10.2112
▁thickness	-10.2112
▁vest	-10.2113
▁nine	-10.2118
▁needed	-10.212
▁stepping	-10.2121
▁curly	-10.2145
▁heard	-10.215
and	-10.2151
▁dogs	-10.216
▁sub	-10.2184
▁shooting	-10.2207
▁online	-10.222
▁rotate	-10.2235
▁bigge	-10.2269
▁device	-10.2275
ma	-10.2296
▁trip	-10.2313
▁drip	-10.2318
▁clips	-10.2327
▁finer	-10.233
▁others	-10.2391
▁tear	-10.2406
▁mo	-10.241
land	-10.2415
▁colored	-10.2429
▁install	-10.2432
_6-	-10.2436
▁speak	-10.2439
▁crack	-10.2444
▁improve	-10.2444
shirt	-10.2463
▁clients	-10.2465
▁kill	-10.2474
jucixg	-10.2494
▁caffeine	-10.2494
▁huge	-10.2494
▁pineapple	-10.2494
▁rhythm	-10.2494
▁sliding	-10.2494
▁changing	-10.2494
▁mixture	-10.2494
▁scrub	-10.2494
▁woman	-10.2494
▁concealer	-10.2494
▁logo	-10.2498
▁structure	-10.2499
▁bath	-10.2505
▁lights	-10.2509
▁canvas	-10.2514
▁cue	-10.2518
ated	-10.2524
▁h	-10.2533
▁spare	-10.2562
un	-10.2564
▁traveling	-10.2565
▁soap	-10.2573
▁su	-10.2581
▁directions	-10.2587
ng	-10.259
▁rocking	-10.2591
▁snap	-10.2597
▁materials	-10.2598
▁falling	-10.262
mp	-10.2644
ock	-10.265
▁centered	-10.2655
▁cuts	-10.2662
▁mechanic	-10.2676
▁bracelet	-10.2677
▁relationship	-10.2678
▁friend	-10.2679
▁artist	-10.268
▁log	-10.2681
▁mistake	-10.2681
hi	-10.2704
ance	-10.2705
ors	-10.2712
▁replace	-10.2732
▁rip	-10.2736
▁ounces	-10.2744
▁jumping	-10.278
_7-	-10.2802
▁pictures	-10.2836
▁pain	-10.2846
▁feed	-10.2863
▁engage	-10.288
▁hill	-10.2886
▁essential	-10.2888
▁coach	-10.2891
▁wonder	-10.2893
▁creature	-10.2894
▁grocer	-10.2894
▁hardware	-10.2894
▁street	-10.2894
▁triangle	-10.2894
▁approach	-10.2894
▁expect	-10.2894
▁knob	-10.2894
▁limit	-10.2894
▁permanent	-10.2894
▁pivot	-10.2894
▁hammer	-10.2894
▁therefore	-10.2894
▁narrow	-10.2894
▁magic	-10.2894
▁saddle	-10.2894
▁barrel	-10.2894
▁jacket	-10.2894
▁incorporate	-10.2894
▁breed	-10.2894
▁mid	-10.2894
▁shade	-10.2895
▁country	-10.2895
▁package	-10.2895
▁panel	-10.2896
▁golden	-10.2896
▁supposed	-10.2896
▁pinch	-10.2898
▁lime	-10.29
▁tense	-10.29
▁17	-10.291
▁anyone	-10.2911
▁18	-10.2914
▁pins	-10.2915
▁leader	-10.2919
▁stem	-10.2919
▁raised	-10.292
▁darker	-10.2922
▁completed	-10.2923
co	-10.2932
▁25	-10.2961
▁fully	-10.2969
309	-10.2969
▁sports	-10.2995
▁handed	-10.3002
▁reading	-10.3005
▁drops	-10.3015
▁teaching	-10.3019
▁ex	-10.3028
▁washing	-10.3033
▁wider	-10.3036
▁catching	-10.3092
▁indoor	-10.3093
▁measurement	-10.3097
▁bead	-10.3101
▁realize	-10.3119
▁shine	-10.3125
tic	-10.3128
▁joint	-10.3136
▁cl	-10.3144
cu	-10.3167
_1-	-10.3171
▁kicking	-10.3186
▁patterns	-10.3197
▁pie	-10.3201
ning	-10.3227
▁perform	-10.3246
_3-	-10.3249
▁report	-10.3286
▁mode	-10.3291
▁contract	-10.3299
▁zip	-10.331
wsfpwg	-10.331
gakrciky	-10.331
▁accent	-10.331
nwgayaq	-10.331
▁achieve	-10.331
▁certified	-10.331
▁challenge	-10.331
▁compliment	-10.331
▁imagine	-10.331
▁leash	-10.331
▁living	-10.331
▁plenty	-10.331
▁pulse	-10.331
▁thirteen	-10.331
▁anymore	-10.331
▁visit	-10.331
▁photo	-10.331
▁birthday	-10.331
▁index	-10.331
▁bathroom	-10.331
▁funny	-10.331
▁lava	-10.3311
▁polish	-10.3311
xrejw	-10.3311
▁wild	-10.3311
▁french	-10.3311
▁plain	-10.3311
▁dangerous	-10.3311
▁captain	-10.3311
▁momentum	-10.3311
▁cardboard	-10.3312
▁strengthen	-10.3313
▁multiple	-10.3314
▁rear	-10.3315
▁finally	-10.3317
▁waste	-10.3321
▁charm	-10.3329
▁dirty	-10.3334
▁shorter	-10.3341
▁older	-10.3349
▁patch	-10.3361
▁rounded	-10.3381
▁nails	-10.3394
▁allowed	-10.3429
▁rocks	-10.3434
▁glaze	-10.3446
▁ca	-10.3459
_12-	-10.3468
▁boots	-10.3471
ap	-10.3495
▁cell	-10.3532
▁variation	-10.3536
▁placed	-10.3546
▁stretching	-10.3548
▁dig	-10.3564
▁tin	-10.3651
let	-10.3662
▁bags	-10.367
▁interest	-10.3687
▁mud	-10.3694
▁web	-10.3696
▁canoe	-10.3705
▁brew	-10.3708
▁plac	-10.371
▁loops	-10.3716
▁drag	-10.374
▁function	-10.374
▁tomato	-10.3742
▁subject	-10.3745
▁liz	-10.3745
▁turtle	-10.3745
▁acrylic	-10.3745
▁forearm	-10.3745
▁frisbee	-10.3745
▁potential	-10.3745
▁practicing	-10.3745
▁relative	-10.3745
▁synthetic	-10.3745
▁teapot	-10.3745
▁utiliz	-10.3745
▁olive	-10.3745
▁phase	-10.3745
▁shelf	-10.3745
▁welcome	-10.3745
▁sick	-10.3745
▁racket	-10.3745
▁urine	-10.3745
▁twice	-10.3745
▁garage	-10.3745
▁paul	-10.3745
▁everyday	-10.3746
▁grain	-10.3746
▁pores	-10.3746
▁everywhere	-10.3746
▁flame	-10.3747
▁torso	-10.3747
▁opportunity	-10.3747
▁mother	-10.3747
▁pump	-10.3748
▁ridge	-10.3748
▁stove	-10.3748
▁reverse	-10.3749
▁gap	-10.3749
▁fiber	-10.375
▁pipe	-10.3751
▁overhead	-10.3753
▁iam	-10.3753
▁100	-10.3753
_11-	-10.3754
▁damp	-10.376
▁gotten	-10.3762
▁images	-10.3767
▁u	-10.3779
▁quicker	-10.3783
▁continu	-10.3787
▁sounds	-10.3794
▁diet	-10.3795
▁spades	-10.3798
▁di	-10.3801
▁seated	-10.3804
▁war	-10.3804
▁oils	-10.3806
▁rate	-10.3812
▁designer	-10.382
out	-10.3821
▁dryer	-10.3847
▁exercises	-10.3852
da	-10.3863
▁fel	-10.3867
▁beans	-10.3884
▁given	-10.3952
▁tires	-10.3952
▁joints	-10.3971
▁bond	-10.3986
▁chemical	-10.3986
z	-10.3988
▁nut	-10.4001
▁marker	-10.4003
▁cases	-10.4006
▁stir	-10.4038
▁young	-10.4072
hand	-10.4095
ky	-10.4137
▁measur	-10.4158
▁prepar	-10.4164
_9-	-10.4165
five	-10.4172
set	-10.4175
▁mount	-10.4178
cro	-10.4181
▁tough	-10.4192
▁slight	-10.4195
▁potato	-10.4197
▁except	-10.4198
▁aroma	-10.4199
▁david	-10.42
▁craft	-10.42
▁dentist	-10.42
▁maintenance	-10.42
▁parallel	-10.42
▁salmon	-10.42
▁therapist	-10.42
▁thermostat	-10.42
▁volleyball	-10.42
▁ollie	-10.42
▁requirements	-10.42
▁average	-10.42
▁carpet	-10.42
▁judge	-10.42
▁paid	-10.42
▁basketball	-10.42
▁fist	-10.42
▁rib	-10.4201
▁mine	-10.4201
▁insert	-10.4201
▁view	-10.4202
▁study	-10.4203
▁charge	-10.4204
ify	-10.4206
▁include	-10.4207
▁horses	-10.4207
▁boy	-10.4209
▁somewhat	-10.421
ative	-10.4212
▁tube	-10.4216
▁traditional	-10.4218
▁bill	-10.4219
▁personally	-10.422
▁involve	-10.4227
▁rim	-10.4232
▁sl	-10.4234
▁enter	-10.4237
▁extended	-10.4245
▁locked	-10.4247
over	-10.4267
▁flying	-10.4278
▁reps	-10.4279
▁writ	-10.4306
▁90	-10.431
rl	-10.436
▁grows	-10.4369
▁bolts	-10.4376
▁adult	-10.4382
▁filling	-10.4385
▁sets	-10.4387
▁twisting	-10.4433
_10-	-10.4447
▁advantage	-10.4455
▁passing	-10.446
▁row	-10.4462
▁bubble	-10.4466
▁cats	-10.4467
▁marti	-10.45
ld	-10.4542
▁causes	-10.4566
▁bottles	-10.459
▁girls	-10.4599
▁spa	-10.4604
▁th	-10.4607
work	-10.461
so	-10.4632
▁season	-10.4637
▁melt	-10.4655
▁cheap	-10.4669
▁collect	-10.4669
▁horizontal	-10.467
▁caught	-10.4676
▁desire	-10.4676
▁flexibility	-10.4676
▁groove	-10.4676
▁honey	-10.4676
▁identify	-10.4676
▁peanut	-10.4676
▁removing	-10.4676
▁sensitive	-10.4676
▁squeezing	-10.4676
▁teaspoon	-10.4676
▁wool	-10.4676
▁chalk	-10.4676
▁crochet	-10.4676
▁deliver	-10.4676
▁display	-10.4676
▁experiment	-10.4676
▁compost	-10.4676
▁spill	-10.4676
▁gonna	-10.4676
▁pillow	-10.4676
▁ensure	-10.4676
▁voice	-10.4676
▁wrench	-10.4676
▁alternative	-10.4676
▁harness	-10.4676
▁south	-10.4676
▁version	-10.4678
▁fitted	-10.4679
▁alcohol	-10.468
▁exist	-10.4682
▁theme	-10.4682
▁soften	-10.4682
▁punches	-10.4688
▁sale	-10.4691
▁boxes	-10.4693
▁loosen	-10.4696
▁shuffle	-10.4697
▁stained	-10.4702
▁conc	-10.4702
▁carefully	-10.4703
nd	-10.4708
▁useful	-10.4709
▁installing	-10.4726
▁straps	-10.4735
▁chip	-10.475
▁teacher	-10.4752
▁conditioning	-10.4753
▁changed	-10.4758
▁sticky	-10.478
▁x	-10.4791
▁arch	-10.4804
▁vers	-10.4819
▁arts	-10.4828
▁flavors	-10.4828
▁marks	-10.4844
▁requires	-10.485
▁pounds	-10.4861
▁finishing	-10.4871
_2-	-10.4895
▁variations	-10.4914
ice	-10.4921
top	-10.4951
▁cheek	-10.4955
▁female	-10.4957
▁breast	-10.4959
▁stamp	-10.4961
▁egg	-10.4965
_5-	-10.5007
▁staying	-10.5022
▁l	-10.5024
▁si	-10.5025
▁gre	-10.5027
oh	-10.5075
▁conditions	-10.5088
_8-	-10.5096
▁fu	-10.5096
▁trees	-10.5099
ow	-10.5105
▁join	-10.513
▁coarse	-10.5132
▁float	-10.5135
▁brakes	-10.5141
▁physical	-10.517
▁successful	-10.5171
▁addition	-10.5171
▁advice	-10.5176
▁aggressive	-10.5176
▁aperture	-10.5176
▁applied	-10.5176
▁community	-10.5176
▁companies	-10.5176
▁decision	-10.5176
▁diamond	-10.5176
▁dinner	-10.5176
▁google	-10.5176
▁gossip	-10.5176
▁monologue	-10.5176
▁opinion	-10.5176
▁protein	-10.5176
▁scoop	-10.5176
▁vintage	-10.5176
▁wagon	-10.5176
▁barrier	-10.5176
▁future	-10.5176
▁rescue	-10.5176
▁anchor	-10.5176
▁balloon	-10.5176
▁rust	-10.5176
▁angry	-10.5176
▁rectangle	-10.5176
▁literally	-10.5176
▁realtor	-10.5176
▁fear	-10.5176
▁russell	-10.5177
▁rotation	-10.5177
▁education	-10.5177
▁trust	-10.5177
▁clap	-10.5177
▁straw	-10.5177
sylv	-10.5177
form	-10.5177
▁address	-10.5178
▁detector	-10.5178
▁connection	-10.5178
▁rise	-10.5179
▁growth	-10.518
dental	-10.5181
▁earth	-10.5181
▁reel	-10.5183
▁china	-10.5184
▁helpful	-10.5185
▁amazing	-10.5185
▁overall	-10.519
▁calm	-10.5193
ability	-10.521
▁particularly	-10.5217
▁miles	-10.5226
▁worked	-10.5238
30	-10.525
▁leaning	-10.526
uches	-10.528
▁meal	-10.53
?"	-10.5303
▁bare	-10.5313
▁driver	-10.5332
ept	-10.5335
▁thighs	-10.5348
▁import	-10.5355
▁ba	-10.5364
▁knows	-10.5376
▁shown	-10.5387
▁painted	-10.539
ab	-10.5394
▁doll	-10.5395
▁lifted	-10.5427
▁choices	-10.5472
ga	-10.5476
5-	-10.5482
all	-10.5488
▁kit	-10.5491
▁result	-10.5491
▁gi	-10.5506
▁spic	-10.5514
▁bi	-10.553
kt	-10.5541
▁roller	-10.5548
▁goals	-10.5552
▁clubs	-10.5562
▁fishing	-10.5591
....	-10.5595
▁paste	-10.5606
tive	-10.5617
▁lin	-10.5638
▁receive	-10.5653
go	-10.5655
▁freeze	-10.566
▁names	-10.5665
▁features	-10.569
▁28	-10.569
▁bump	-10.5696
▁neutral	-10.5702
▁apple	-10.5702
▁bicycle	-10.5702
▁champagne	-10.5702
▁college	-10.5702
▁confident	-10.5702
▁crazy	-10.5702
▁defensive	-10.5702
▁faith	-10.5702
▁instrument	-10.5702
▁insulation	-10.5702
▁ladies	-10.5702
▁pimples	-10.5702
▁squash	-10.5702
▁steady	-10.5702
▁swirl	-10.5702
▁treadmill	-10.5702
▁flick	-10.5702
▁leaving	-10.5702
▁delicious	-10.5702
▁robert	-10.5702
▁assistant	-10.5702
▁dough	-10.5702
▁dried	-10.5703
▁resistance	-10.5703
▁gina	-10.5703
▁chew	-10.5703
▁constantly	-10.5703
▁triple	-10.5704
▁rum	-10.5704
rpm	-10.5704
▁broken	-10.5705
▁stable	-10.5705
▁code	-10.5706
▁fitting	-10.5709
▁binding	-10.571
▁manufacturer	-10.5711
▁email	-10.5715
▁fal	-10.5715
▁agent	-10.5722
▁aim	-10.5722
▁crank	-10.5724
_4-	-10.5731
▁runs	-10.5732
▁fingertips	-10.5743
▁prepared	-10.5748
▁washer	-10.5749
▁lu	-10.5768
▁16	-10.5769
ries	-10.5796
▁ab	-10.5905
▁stands	-10.5907
▁ro	-10.592
_0-	-10.5937
ud	-10.595
▁kayak	-10.5994
van	-10.5996
▁file	-10.5996
ist	-10.5996
de	-10.6007
▁transition	-10.6037
▁mountain	-10.6039
▁restaurant	-10.604
▁solution	-10.6041
▁sleeve	-10.6042
▁boot	-10.6045
▁pound	-10.6046
▁bolt	-10.6046
▁gel	-10.6047
▁benefit	-10.6047
▁covers	-10.6054
▁flag	-10.6058
▁animals	-10.6063
▁falls	-10.6078
▁programs	-10.6122
▁inter	-10.6133
▁gas	-10.6136
▁notch	-10.6145
▁wings	-10.6147
▁clocks	-10.6171
king	-10.6198
▁scratch	-10.6212
ile	-10.6213
▁strips	-10.6228
weight	-10.6229
▁die	-10.6235
ger	-10.6237
ite	-10.6247
▁typical	-10.6252
aot	-10.6253
▁operat	-10.6256
▁weak	-10.6257
▁resist	-10.6257
▁copy	-10.6258
yopq	-10.6258
cpyjmyak	-10.6258
▁accessories	-10.6258
▁border	-10.6258
▁butterfly	-10.6258
▁california	-10.6258
▁chamber	-10.6258
▁clown	-10.6258
▁communication	-10.6258
▁definition	-10.6258
▁drug	-10.6258
▁grease	-10.6258
▁kiln	-10.6258
▁lazy	-10.6258
▁memory	-10.6258
▁necklace	-10.6258
▁positive	-10.6258
▁procedure	-10.6258
▁purple	-10.6258
▁recipe	-10.6258
▁ribbon	-10.6258
▁scalp	-10.6258
▁session	-10.6258
▁television	-10.6258
▁zero	-10.6258
▁decoration	-10.6258
▁movie	-10.6258
▁scent	-10.6258
▁offense	-10.6258
▁national	-10.6258
▁competition	-10.6258
▁forehand	-10.6258
▁tilt	-10.6258
▁nature	-10.6258
▁bedroom	-10.6258
▁garment	-10.6258
▁alone	-10.6258
▁extinguisher	-10.6258
▁organic	-10.6259
▁lost	-10.6259
▁rich	-10.6259
▁prior	-10.6259
▁rose	-10.6259
▁message	-10.6259
▁tile	-10.626
▁bake	-10.626
▁behavior	-10.6261
▁encourage	-10.6261
▁history	-10.6262
▁tomatoes	-10.6262
▁mug	-10.6264
▁weeks	-10.6268
▁anytime	-10.6269
state	-10.6271
▁matches	-10.6274
way	-10.6276
▁lesson	-10.628
▁setup	-10.6285
▁candle	-10.6291
▁fighting	-10.6292
▁27	-10.6296
▁fur	-10.6305
▁demo	-10.6315
▁details	-10.6318
▁evening	-10.6332
▁pu	-10.6335
).	-10.6338
▁highly	-10.6339
▁upside	-10.6339
▁recommended	-10.6356
ph	-10.636
▁removed	-10.6362
▁noticed	-10.6363
ise	-10.6371
▁steaming	-10.6375
▁pointing	-10.6385
▁offer	-10.6403
ler	-10.6403
▁weeds	-10.6407
▁ne	-10.6413
▁bear	-10.6415
▁happening	-10.6427
▁bo	-10.643
▁eyebrows	-10.6438
▁evenly	-10.6441
▁highlights	-10.645
▁poles	-10.6451
▁notes	-10.6499
▁gun	-10.6521
▁dece	-10.654
▁groups	-10.6573
ard	-10.6574
▁taper	-10.66
▁site	-10.6614
▁require	-10.662
▁motorcycle	-10.6625
00	-10.6627
▁cheer	-10.6629
▁source	-10.6631
▁vitamin	-10.6634
▁kicks	-10.6635
▁ingredient	-10.6636
▁changes	-10.6637
▁pee	-10.6662
▁aspect	-10.6679
▁yards	-10.669
▁weare	-10.67
ized	-10.67
time	-10.6704
ide	-10.6708
▁n	-10.6727
▁effects	-10.6768
▁cur	-10.6798
▁bread	-10.6804
▁steep	-10.6805
board	-10.6812
ton	-10.6817
▁les	-10.6832
▁serious	-10.684
▁visual	-10.684
▁sudden	-10.684
▁current	-10.684
▁batter	-10.6841
▁lens	-10.6843
▁anybody	-10.6846
▁decorative	-10.6846
▁delete	-10.6846
▁depth	-10.6846
▁human	-10.6846
▁minor	-10.6846
▁oxygen	-10.6846
▁platform	-10.6846
▁razor	-10.6846
▁resume	-10.6846
▁stiff	-10.6846
▁sunscreen	-10.6846
▁taught	-10.6846
▁unfortunately	-10.6846
▁videographer	-10.6846
▁wound	-10.6846
▁remain	-10.6846
▁stroller	-10.6846
▁henna	-10.6846
▁cabinet	-10.6846
▁eliminat	-10.6846
▁decorate	-10.6846
▁bridge	-10.6846
▁laura	-10.6846
▁construction	-10.6846
▁slack	-10.6846
▁weather	-10.6846
▁hydrating	-10.6846
▁rack	-10.6846
▁mood	-10.6847
▁max	-10.6847
▁calf	-10.6847
▁trimming	-10.6847
▁clasp	-10.6847
▁whip	-10.6847
▁planning	-10.6847
▁salon	-10.6847
▁consistency	-10.6847
▁property	-10.6848
▁bait	-10.6848
▁shopping	-10.6848
▁drum	-10.6848
▁gather	-10.6849
▁concerned	-10.6857
▁due	-10.6858
▁multi	-10.6872
yes	-10.6872
▁commonly	-10.6874
▁bite	-10.6875
kic	-10.688
▁tan	-10.689
▁lo	-10.6897
▁cle	-10.6901
▁tired	-10.6903
we	-10.6906
▁cha	-10.691
▁boiling	-10.6919
▁protected	-10.693
jsu	-10.6936
▁shaped	-10.6944
-5-	-10.6959
▁systems	-10.696
▁rob	-10.6964
▁folded	-10.6967
▁asked	-10.7008
▁cars	-10.701
que	-10.7023
▁gardening	-10.7035
▁specialize	-10.7037
▁eating	-10.7048
▁item	-10.7057
▁styles	-10.7064
▁vitamins	-10.7064
▁chains	-10.7067
losing	-10.7079
▁shin	-10.7105
ff	-10.7121
▁nuts	-10.713
▁angles	-10.7132
▁mistakes	-10.7171
▁gra	-10.7183
▁22	-10.7194
▁wor	-10.72
▁sa	-10.7208
▁bottoms	-10.722
_13-	-10.7238
▁tab	-10.7251
▁coloring	-10.7252
▁month	-10.7254
▁male	-10.7258
▁thigh	-10.7259
▁feature	-10.7259
▁highlight	-10.7261
▁jean	-10.7262
ach	-10.7265
▁miss	-10.7268
▁pole	-10.7269
▁told	-10.728
▁skill	-10.73
▁roots	-10.7341
▁america	-10.7386
▁po	-10.74
▁park	-10.7405
▁thumbs	-10.7416
▁pri	-10.7425
light	-10.7435
field	-10.744
off	-10.7449
▁king	-10.7455
▁license	-10.7457
▁advance	-10.7458
▁diagonal	-10.7465
▁manual	-10.7465
▁obvious	-10.7465
▁grade	-10.7468
▁bracket	-10.7471
▁cockpit	-10.7471
▁complicated	-10.7471
▁diabetes	-10.7471
▁jeff	-10.7471
▁knock	-10.7471
▁knowledge	-10.7471
▁leopard	-10.7471
▁lettuce	-10.7471
▁millimeter	-10.7471
▁monitor	-10.7471
▁nutrients	-10.7471
▁perfume	-10.7471
▁secret	-10.7471
▁turkey	-10.7471
▁utah	-10.7471
▁volume	-10.7471
▁warranty	-10.7471
▁creative	-10.7471
▁label	-10.7471
▁shaft	-10.7471
▁valve	-10.7471
▁lake	-10.7471
▁roast	-10.7471
▁modern	-10.7471
▁nick	-10.7471
▁suck	-10.7471
▁spider	-10.7471
▁mouthpiece	-10.7471
▁bobby	-10.7471
▁reference	-10.7471
▁security	-10.7471
bson	-10.7471
,000	-10.7471
▁kitty	-10.7471
▁preference	-10.7471
▁quarterback	-10.7471
▁pace	-10.7472
▁bench	-10.7472
▁fancy	-10.7472
▁carbon	-10.7472
▁risk	-10.7472
▁african	-10.7473
▁wrapped	-10.7473
▁guideline	-10.7473
▁collection	-10.7473
▁dehydrated	-10.7474
▁jar	-10.7474
▁lying	-10.7474
▁loss	-10.7476
▁noise	-10.7477
▁gage	-10.7477
▁lunge	-10.7478
▁wig	-10.748
▁pest	-10.748
▁plank	-10.7481
▁rag	-10.7483
▁till	-10.7485
▁tried	-10.7486
▁law	-10.7489
fw	-10.7495
ung	-10.7495
▁stream	-10.7497
▁stronger	-10.7503
▁1,	-10.7506
▁slower	-10.7506
▁clearly	-10.7508
▁arc	-10.7509
▁connected	-10.751
▁tricky	-10.7516
▁wedge	-10.7517
▁brushes	-10.7519
▁eighth	-10.7527
▁eighty	-10.7543
▁components	-10.7548
▁buttons	-10.7553
▁sewing	-10.7556
11	-10.7557
▁mom	-10.7558
▁outline	-10.756
▁ability	-10.7562
rni	-10.7565
▁ruler	-10.7576
▁cutters	-10.7577
▁beside	-10.7591
▁poses	-10.7595
▁filled	-10.76
ure	-10.7603
coming	-10.7607
▁landing	-10.7609
kr	-10.7613
▁imp	-10.7614
▁coated	-10.7617
▁jobs	-10.7621
14	-10.7628
▁scar	-10.7642
▁pile	-10.7648
▁cu	-10.7661
▁compare	-10.7663
▁mostly	-10.7673
ip	-10.7701
▁bur	-10.7705
▁proportion	-10.7721
▁following	-10.7728
▁prop	-10.7751
▁chemicals	-10.7775
▁resting	-10.7777
win	-10.7778
▁cleaned	-10.7787
▁cells	-10.7789
▁boards	-10.7791
▁walls	-10.7831
▁le	-10.7863
▁maxim	-10.7872
can	-10.7876
▁concentrate	-10.7915
/04	-10.7924
▁eyebrow	-10.7925
▁abdominal	-10.7927
▁scissor	-10.7929
▁hem	-10.7949
▁total	-10.7998
▁seem	-10.8001
▁drying	-10.8005
ack	-10.8009
▁rules	-10.8009
▁begins	-10.8066
▁tub	-10.8071
▁mar	-10.8107
▁breaks	-10.8112
tain	-10.813
▁vertical	-10.8131
▁dimension	-10.8133
▁branch	-10.8134
▁peac	-10.8137
▁birth	-10.8138
▁jaw	-10.8138
▁plum	-10.8138
▁association	-10.8138
▁biodiesel	-10.8138
▁bodies	-10.8138
▁broccoli	-10.8138
▁bunker	-10.8138
▁category	-10.8138
▁conflict	-10.8138
▁dream	-10.8138
▁etiquette	-10.8138
▁expand	-10.8138
▁flounder	-10.8138
▁furniture	-10.8138
▁impromptu	-10.8138
▁michelle	-10.8138
▁primarily	-10.8138
▁radio	-10.8138
▁reptile	-10.8138
▁respond	-10.8138
▁reward	-10.8138
▁scoring	-10.8138
▁serving	-10.8138
▁squeegee	-10.8138
▁uniform	-10.8138
▁yoyo	-10.8138
▁brief	-10.8138
▁dribbling	-10.8138
▁lasso	-10.8138
▁scene	-10.8138
▁intensity	-10.8138
▁grabbing	-10.8138
▁subtle	-10.8138
▁brayer	-10.8138
▁sculpture	-10.8138
▁micro	-10.8138
▁muller	-10.8138
▁diameter	-10.8138
▁classroom	-10.8138
▁harsh	-10.8138
▁pizza	-10.8138
▁drew	-10.8138
▁staff	-10.8138
▁mulch	-10.8138
▁resin	-10.8138
▁concept	-10.8138
▁dealership	-10.8138
▁lump	-10.8138
▁lever	-10.8138
▁roping	-10.8138
▁hose	-10.8138
▁dvd	-10.8139
▁flight	-10.8139
▁approximately	-10.8139
▁describe	-10.8139
▁impression	-10.8139
▁hookah	-10.8139
▁fuel	-10.8139
▁wish	-10.8139
▁trophy	-10.814
▁homework	-10.8142
▁1/4	-10.8142
▁selection	-10.8143
▁moon	-10.8145
▁dull	-10.8145
▁vision	-10.8145
▁carrier	-10.8148
▁controlled	-10.8149
▁trailer	-10.8152
▁deco	-10.8153
▁37	-10.8162
▁speaker	-10.8163
▁fourth	-10.8165
▁stretches	-10.8168
▁vent	-10.8174
▁easter	-10.8174
▁softer	-10.8176
▁grinder	-10.8177
marine	-10.8178
▁none	-10.8179
▁missing	-10.8182
▁bean	-10.8198
▁ropes	-10.8212
▁balanced	-10.8218
▁event	-10.822
▁ob	-10.8228
▁waiting	-10.8235
▁sits	-10.8239
▁happened	-10.824
▁spending	-10.8243
try	-10.8245
▁printed	-10.8258
ho	-10.8264
/4	-10.8265
▁cloves	-10.8266
rete	-10.8301
ups	-10.8306
▁knots	-10.8315
xc	-10.8322
▁fleas	-10.8326
▁tv	-10.8335
▁32	-10.835
▁abdominals	-10.8357
▁wi	-10.8362
▁04	-10.837
▁60	-10.8418
▁casting	-10.8426
▁ago	-10.8431
▁adults	-10.845
▁drills	-10.8458
▁designs	-10.8494
▁soup	-10.85
▁trac	-10.8555
▁pointed	-10.857
▁objects	-10.8603
_14-	-10.8632
▁outdoor	-10.8633
▁sixteen	-10.8637
▁tre	-10.8658
▁ph	-10.8677
▁introduce	-10.8692
▁ankles	-10.8697
ence	-10.8738
ons	-10.8738
▁screws	-10.8744
▁prep	-10.8765
tting	-10.8775
▁media	-10.8776
▁fight	-10.8788
▁sweat	-10.882
▁rolls	-10.8826
▁reflect	-10.8842
▁dropp	-10.8843
▁efficient	-10.8846
▁quiet	-10.8846
▁consistent	-10.8847
▁athlet	-10.8849
▁snug	-10.885
ancy	-10.8851
▁minu	-10.8851
▁wake	-10.8852
▁surf	-10.8852
▁summer	-10.8852
▁elastic	-10.8852
▁pearl	-10.8852
▁activities	-10.8852
▁asparagus	-10.8852
▁clockwise	-10.8852
▁clump	-10.8852
▁compass	-10.8852
▁dialogue	-10.8852
▁dynamic	-10.8852
▁essay	-10.8852
▁gecko	-10.8852
▁knives	-10.8852
▁motocross	-10.8852
▁perception	-10.8852
▁residue	-10.8852
▁ruin	-10.8852
▁sake	-10.8852
▁sensitivity	-10.8852
▁shredde	-10.8852
▁smash	-10.8852
▁stewart	-10.8852
▁thermometer	-10.8852
▁volcano	-10.8852
▁downward	-10.8852
▁parsley	-10.8852
▁tread	-10.8852
▁critical	-10.8852
▁ease	-10.8852
▁enemy	-10.8852
▁strange	-10.8852
▁vase	-10.8852
▁tug	-10.8852
▁roof	-10.8852
▁hobson	-10.8852
▁puff	-10.8852
ency	-10.8852
▁flute	-10.8852
▁cuff	-10.8852
▁recover	-10.8852
▁species	-10.8852
▁automatically	-10.8852
▁flexible	-10.8852
▁tack	-10.8852
▁sparkling	-10.8852
▁demonstration	-10.8853
▁reaction	-10.8853
▁batteries	-10.8853
▁confidence	-10.8853
▁cork	-10.8854
▁bevel	-10.8854
▁retain	-10.8854
▁vary	-10.8854
▁operation	-10.8854
▁feather	-10.8856
▁located	-10.8856
ities	-10.8857
▁torch	-10.8858
▁bass	-10.8858
▁born	-10.8859
▁worse	-10.8861
▁lust	-10.8861
▁crawl	-10.8861
▁dragon	-10.8863
▁lie	-10.8863
▁thinner	-10.8863
teri	-10.8866
▁pong	-10.887
berry	-10.8872
▁tailor	-10.8873
▁lat	-10.8874
▁48	-10.8874
▁harm	-10.8881
▁sweater	-10.8884
▁forms	-10.8886
▁boomer	-10.8902
rie	-10.8903
▁whiten	-10.8913
ious	-10.8913
▁sling	-10.8919
▁boats	-10.8934
▁marked	-10.8948
▁disc	-10.896
▁timing	-10.896
▁mr	-10.8966
▁focused	-10.8968
▁washed	-10.898
hu	-10.8989
▁carrying	-10.9002
▁adapti	-10.9011
▁masking	-10.9015
▁cookies	-10.9025
▁boas	-10.9029
▁basics	-10.9046
▁bloom	-10.9073
ey	-10.9087
▁temperatures	-10.9096
▁sources	-10.9121
▁events	-10.9121
▁bending	-10.9137
▁choke	-10.9141
icle	-10.9164
dn	-10.9233
▁todd	-10.9234
▁rings	-10.9276
▁shed	-10.9308
▁rec	-10.931
▁lined	-10.9324
▁levels	-10.9353
▁ri	-10.9355
▁wrists	-10.9375
▁chi	-10.9379
▁sample	-10.94
▁costume	-10.9403
▁terminal	-10.9406
▁flea	-10.9407
▁clipper	-10.9409
▁fa	-10.9422
▁kid	-10.9425
▁11	-10.9429
▁prints	-10.947
▁houses	-10.9485
▁scrap	-10.9505
▁stars	-10.9527
▁refer	-10.9544
▁climb	-10.9562
▁mini	-10.9567
back	-10.9588
stream	-10.9589
ship	-10.959
▁quart	-10.9606
hey	-10.9609
▁trans	-10.9612
▁contain	-10.9614
oky	-10.9617
▁afterwards	-10.9621
▁bullet	-10.9621
▁calendar	-10.9621
▁campfire	-10.9621
▁challenging	-10.9621
▁church	-10.9621
▁commercial	-10.9621
▁conversation	-10.9621
▁cowboy	-10.9621
▁drywall	-10.9621
▁frequently	-10.9621
▁gipson	-10.9621
▁impact	-10.9621
▁inexpensive	-10.9621
▁injury	-10.9621
▁international	-10.9621
▁knew	-10.9621
▁mcgehee	-10.9621
▁medicine	-10.9621
▁paddling	-10.9621
▁pendulum	-10.9621
▁perpendicular	-10.9621
▁profile	-10.9621
▁puppy	-10.9621
▁register	-10.9621
▁releasing	-10.9621
▁render	-10.9621
▁symbol	-10.9621
▁telephone	-10.9621
▁valley	-10.9621
▁content	-10.9621
▁crisp	-10.9621
▁error	-10.9621
▁leak	-10.9621
▁tattoo	-10.9621
▁chisel	-10.9621
▁dedicate	-10.9621
▁herbal	-10.9621
▁humor	-10.9621
▁lady	-10.9621
▁rubbing	-10.9621
▁unique	-10.9621
▁hollywood	-10.9621
▁cycle	-10.9621
▁pedal	-10.9621
▁facial	-10.9621
▁grout	-10.9621
▁crew	-10.9621
▁barbie	-10.9621
▁swamp	-10.9621
▁stationary	-10.9622
▁splash	-10.9622
▁sideways	-10.9622
▁discover	-10.9622
▁household	-10.9622
▁task	-10.9622
▁cheat	-10.9622
▁income	-10.9622
▁settle	-10.9622
▁password	-10.9622
▁review	-10.9622
▁laid	-10.9622
▁closing	-10.9623
▁uh	-10.9623
▁statement	-10.9623
▁adjustment	-10.9623
▁fourteen	-10.9623
▁apartment	-10.9624
▁buckle	-10.9626
▁confused	-10.9626
▁solder	-10.9626
▁torque	-10.9628
▁durable	-10.9628
▁vel	-10.9628
▁disease	-10.9629
▁lucky	-10.9629
▁fitness	-10.9631
▁hide	-10.9632
▁stripes	-10.9633
▁success	-10.9634
▁shiny	-10.9636
▁hardness	-10.9643
ium	-10.965
▁bu	-10.9655
▁passes	-10.9656
▁sharpening	-10.9659
▁ha	-10.966
▁installed	-10.9663
▁deeply	-10.9663
▁damaged	-10.9671
▁lining	-10.9681
▁hamstrings	-10.9683
▁freezer	-10.9685
▁cone	-10.9698
▁lastly	-10.971
▁ace	-10.9718
▁blended	-10.9724
▁0	-10.9735
▁disks	-10.9735
▁parents	-10.9739
▁sting	-10.9744
▁nap	-10.9745
▁12	-10.9749
▁measured	-10.976
▁def	-10.976
ible	-10.9782
ial	-10.9788
ja	-10.9797
▁42	-10.9799
▁trainers	-10.9809
ah	-10.9824
▁lives	-10.9834
▁couch	-10.9836
▁terminals	-10.9841
▁seeds	-10.9843
▁passed	-10.9848
▁culture	-10.9852
zing	-10.9856
▁trace	-10.9858
▁bee	-10.987
▁hooping	-10.9877
▁coats	-10.9889
▁bri	-10.9906
▁ste	-10.9925
▁threads	-10.994
▁sta	-11.0002
▁stones	-11.0003
▁tri	-11.0006
▁warming	-11.0022
▁played	-11.0051
_15-	-11.0074
▁seams	-11.0093
▁active	-11.01
▁computers	-11.0101
if	-11.0102
▁customers	-11.0155
head	-11.0186
▁motions	-11.0209
long	-11.0214
▁looked	-11.0229
▁sport	-11.0243
▁extensions	-11.0258
▁strikes	-11.0258
▁ke	-11.0258
▁skip	-11.0262
▁vo	-11.0306
▁tissues	-11.0331
▁websites	-11.035
by	-11.036
▁farm	-11.0371
▁75	-11.0376
▁z	-11.0382
▁cakes	-11.0387
▁tra	-11.0398
▁east	-11.0409
▁com	-11.0411
▁mass	-11.0414
▁sharpen	-11.0422
demo	-11.0423
▁alternat	-11.0427
▁align	-11.0432
▁concentrat	-11.0433
▁stack	-11.0434
▁defend	-11.0441
▁lighten	-11.0445
▁jan	-11.0446
▁smells	-11.0452
▁peach	-11.0452
▁danger	-11.0454
well	-11.0454
▁thai	-11.0454
▁stro	-11.0454
▁text	-11.0454
▁blank	-11.0454
smith	-11.0455
▁activity	-11.0455
▁anthony	-11.0455
▁bartender	-11.0455
▁cabbage	-11.0455
▁celery	-11.0455
▁ceramic	-11.0455
▁christmas	-11.0455
▁consult	-11.0455
▁copper	-11.0455
▁debris	-11.0455
▁department	-11.0455
▁destroy	-11.0455
▁disappear	-11.0455
▁duck	-11.0455
▁empty	-11.0455
▁enclosure	-11.0455
▁excuse	-11.0455
▁external	-11.0455
▁fellow	-11.0455
▁flies	-11.0455
▁guarantee	-11.0455
▁handspring	-11.0455
▁hypnosis	-11.0455
▁impossible	-11.0455
▁industry	-11.0455
▁insomnia	-11.0455
▁intake	-11.0455
▁jersey	-11.0455
▁melissa	-11.0455
▁microsoft	-11.0455
▁mild	-11.0455
▁nobody	-11.0455
▁ourselves	-11.0455
▁peroxide	-11.0455
▁purse	-11.0455
▁realistic	-11.0455
▁response	-11.0455
▁ribcage	-11.0455
▁salad	-11.0455
▁sketch	-11.0455
▁spiral	-11.0455
▁sturdy	-11.0455
▁sundae	-11.0455
▁trigger	-11.0455
▁umbrella	-11.0455
▁underwear	-11.0455
▁valuable	-11.0455
▁racing	-11.0455
▁crop	-11.0455
▁parsons	-11.0455
▁eyeliner	-11.0455
▁organization	-11.0455
▁zebra	-11.0455
▁infant	-11.0455
▁manner	-11.0455
▁marriage	-11.0455
▁weapon	-11.0455
▁skateboard	-11.0455
▁exposure	-11.0455
▁strand	-11.0455
▁ocd	-11.0455
▁busy	-11.0455
▁mouse	-11.0455
▁runner	-11.0455
▁lizard	-11.0455
▁fail	-11.0455
▁wife	-11.0455
▁antique	-11.0455
▁native	-11.0455
▁shaking	-11.0455
▁whoever	-11.0456
▁seventy	-11.0457
▁saturated	-11.0457
▁football	-11.0458
▁technically	-11.0458
ood	-11.0458
▁kiss	-11.0458
▁wrapping	-11.0458
▁hits	-11.0459
▁dries	-11.0459
▁survive	-11.0459
▁potatoes	-11.046
▁boss	-11.0461
▁graduat	-11.0462
▁classes	-11.0464
▁hood	-11.0468
▁vet	-11.0471
▁placement	-11.0473
▁sewn	-11.0477
▁shore	-11.048
▁symptoms	-11.0484
▁38	-11.0491
▁developer	-11.05
▁rent	-11.0511
▁conditioner	-11.0511
▁career	-11.0516
▁springs	-11.0519
▁tied	-11.0528
▁developed	-11.0534
▁receiver	-11.0537
▁latch	-11.0538
▁ticks	-11.0541
▁cd	-11.0558
▁26	-11.0563
▁pure	-11.0581
▁ken	-11.0582
▁hol	-11.0583
▁situations	-11.0594
cal	-11.0597
▁journals	-11.0598
▁meeting	-11.0605
▁loved	-11.0615
▁lob	-11.0622
▁purposes	-11.0632
lates	-11.0641
▁ta	-11.0651
▁members	-11.0656
vd	-11.0691
ty	-11.0695
▁planted	-11.0706
▁mall	-11.0714
▁adds	-11.0719
▁drinking	-11.0743
▁3,	-11.0744
▁seed	-11.0744
▁kings	-11.0755
▁aspects	-11.0773
▁sleeves	-11.0792
▁sc	-11.0805
▁ann	-11.0809
met	-11.0811
▁pushed	-11.0824
▁assemble	-11.0824
▁holder	-11.0833
▁tag	-11.0851
▁boxing	-11.0852
▁markers	-11.0878
▁wires	-11.0884
▁designing	-11.0888
▁heating	-11.0893
▁drawer	-11.0897
▁exfoliate	-11.0897
▁measurements	-11.091
▁relationships	-11.093
▁wines	-11.0954
dic	-11.0974
itas	-11.0989
▁shows	-11.1006
▁legal	-11.1016
qu	-11.1031
▁doors	-11.1034
▁meant	-11.1049
ee	-11.1058
▁drinks	-11.1085
▁minim	-11.1094
tz	-11.1095
gh	-11.1095
stick	-11.1095
▁massag	-11.1098
▁hal	-11.1101
▁bars	-11.1106
▁containers	-11.1111
inch	-11.1112
▁exam	-11.1116
use	-11.1126
▁sheets	-11.113
col	-11.1133
▁boa	-11.1135
▁shark	-11.1144
▁member	-11.1148
▁spark	-11.1149
nia	-11.115
▁cookie	-11.1152
▁factor	-11.1153
▁bug	-11.116
▁pa	-11.116
▁trainer	-11.1169
▁segments	-11.1172
▁molds	-11.1184
▁vi	-11.1194
▁pit	-11.1204
rian	-11.1233
for	-11.1281
▁photograph	-11.1294
▁includ	-11.1298
▁ti	-11.1325
ba	-11.1327
wood	-11.133
slide	-11.1332
bacteria	-11.1332
three	-11.1335
▁chris	-11.1339
▁mention	-11.1346
▁nin	-11.135
four	-11.1353
▁fra	-11.1353
▁internal	-11.1357
▁matt	-11.1359
▁ap	-11.1361
▁progress	-11.1361
▁accept	-11.1362
▁comfort	-11.1362
▁stan	-11.1363
▁effort	-11.1363
▁impress	-11.1363
▁dramatic	-11.1363
▁automatic	-11.1363
▁rug	-11.1364
▁dinosaur	-11.1364
▁dumbbell	-11.1364
▁pretend	-11.1364
▁shield	-11.1364
▁shrug	-11.1364
▁truck	-11.1364
▁antifreeze	-11.1364
▁april	-11.1364
▁author	-11.1364
▁bailey	-11.1364
▁beyond	-11.1364
▁caliper	-11.1364
▁carolina	-11.1364
▁cocktail	-11.1364
▁connoisseur	-11.1364
▁contour	-11.1364
▁criss	-11.1364
▁detergent	-11.1364
▁elderly	-11.1364
▁europe	-11.1364
▁fabulous	-11.1364
▁fatigue	-11.1364
▁fifth	-11.1364
▁glitter	-11.1364
▁gravity	-11.1364
▁initiate	-11.1364
▁jail	-11.1364
▁liquor	-11.1364
▁miami	-11.1364
▁nervous	-11.1364
▁nitrogen	-11.1364
▁peak	-11.1364
▁practitioner	-11.1364
▁private	-11.1364
▁purchasing	-11.1364
▁random	-11.1364
▁recreation	-11.1364
▁routine	-11.1364
▁sequence	-11.1364
▁tumbling	-11.1364
▁unicycle	-11.1364
▁versatile	-11.1364
▁visible	-11.1364
▁blush	-11.1364
▁gallon	-11.1364
▁housing	-11.1364
▁martini	-11.1364
▁pronounced	-11.1364
▁swiss	-11.1364
▁title	-11.1364
▁vanveen	-11.1364
▁linebacker	-11.1364
▁newspaper	-11.1364
▁grid	-11.1364
▁720	-11.1364
▁backswing	-11.1364
▁conservative	-11.1364
▁coral	-11.1364
▁semi	-11.1364
▁respect	-11.1364
▁bash	-11.1364
▁pause	-11.1364
characteristic	-11.1364
▁beginner	-11.1364
▁axle	-11.1364
▁eggplant	-11.1364
▁odd	-11.1364
▁allergi	-11.1364
▁southern	-11.1364
▁occasionally	-11.1364
▁introduction	-11.1364
ficial	-11.1364
▁penalt	-11.1364
▁lack	-11.1364
▁solutionz	-11.1364
▁chef	-11.1364
▁ledge	-11.1364
▁nearby	-11.1364
▁million	-11.1364
▁circulation	-11.1365
▁earring	-11.1365
▁tackle	-11.1365
▁photographic	-11.1366
▁campus	-11.1366
▁solve	-11.1367
▁sixty	-11.1367
▁rarely	-11.1369
▁mad	-11.1369
▁coolant	-11.1369
▁worms	-11.137
▁peg	-11.137
▁dean	-11.1371
▁flatten	-11.1372
▁dew	-11.1374
▁recommendation	-11.1376
▁tray	-11.1377
▁hale	-11.1378
▁vehicles	-11.138
▁originally	-11.138
▁required	-11.1385
▁moisturizer	-11.1386
end	-11.1392
▁safely	-11.1392
▁toenails	-11.1396
▁arti	-11.1397
▁convenient	-11.1397
▁production	-11.1398
▁digital	-11.1398
▁inspect	-11.1399
▁agree	-11.14
▁ship	-11.1402
ight	-11.1403
▁blender	-11.1404
▁shooter	-11.1405
▁strongly	-11.1407
▁vir	-11.1408
▁presses	-11.1408
▁renting	-11.1409
▁carp	-11.1414
▁crawling	-11.1416
▁folks	-11.1416
▁resources	-11.1416
▁flo	-11.1423
▁cleanser	-11.1424
▁palms	-11.1425
▁parking	-11.1426
▁trained	-11.1428
▁tender	-11.1432
▁cracker	-11.1433
▁attract	-11.1435
▁glasses	-11.1435
▁pelvis	-11.1437
▁videos	-11.1438
▁filet	-11.1445
ley	-11.1447
▁hats	-11.1447
▁porc	-11.1454
▁magazines	-11.1458
▁signs	-11.1459
▁29	-11.1473
▁closely	-11.1476
▁wrinkles	-11.148
▁scrape	-11.1503
▁officer	-11.1509
wm	-11.1513
▁guests	-11.1522
▁blowing	-11.1526
▁teams	-11.1542
▁socks	-11.1542
▁upwards	-11.1543
▁locking	-11.1563
▁sleeping	-11.1567
▁relaxing	-11.1575
▁123	-11.1576
▁bugs	-11.1585
like	-11.1602
▁burning	-11.1608
▁caused	-11.1616
▁perm	-11.1625
tip	-11.1632
▁circu	-11.1635
▁focusing	-11.1668
▁treats	-11.167
atic	-11.1704
▁serves	-11.1711
▁solutions	-11.1736
▁gels	-11.1736
▁kits	-11.1758
▁mu	-11.1772
▁stamps	-11.1776
▁breasts	-11.1779
▁rows	-11.1801
▁matte	-11.1808
▁towels	-11.1817
men	-11.1823
▁sing	-11.1833
▁cru	-11.1851
oc	-11.1852
▁2,	-11.1852
▁forest	-11.1857
mes	-11.1872
▁bracelets	-11.1888
▁fil	-11.1895
▁nor	-11.1925
▁fin	-11.194
▁onions	-11.1981
ram	-11.2018
▁ended	-11.2035
▁ma	-11.2036
▁sw	-11.2038
▁compar	-11.2058
▁records	-11.2088
▁teas	-11.2097
mail	-11.2112
ern	-11.2132
▁skim	-11.2138
▁tangle	-11.2142
▁crystal	-11.2143
▁festival	-11.2145
▁maps	-11.2147
▁expression	-11.2147
▁student	-11.2153
▁element	-11.2153
uring	-11.2168
▁keeper	-11.2196
▁combinations	-11.2221
iness	-11.2228
terior	-11.2252
▁positions	-11.2263
ban	-11.2268
lain	-11.2297
▁pinn	-11.2302
4-4_2	-11.2308
what	-11.2311
bone	-11.2318
▁rais	-11.232
▁staple	-11.232
▁raft	-11.2321
▁frost	-11.2322
▁bleed	-11.2323
▁manage	-11.2328
▁postures	-11.2335
▁establish	-11.2343
▁combine	-11.2353
▁surprise	-11.2353
▁extreme	-11.236
▁rare	-11.2361
▁compress	-11.2362
▁implement	-11.2362
▁yo	-11.2362
▁afford	-11.2362
▁habit	-11.2363
▁overlap	-11.2363
▁blot	-11.2363
_17-	-11.2364
]	-11.2364
▁accuracy	-11.2364
▁afro	-11.2364
▁afternoon	-11.2364
▁airplane	-11.2364
▁bleach	-11.2364
▁cactus	-11.2364
▁casserole	-11.2364
▁certificat	-11.2364
▁climate	-11.2364
▁communicate	-11.2364
▁compartment	-11.2364
▁crash	-11.2364
▁daniel	-11.2364
▁emotion	-11.2364
▁exciting	-11.2364
▁flesh	-11.2364
▁frizz	-11.2364
▁himself	-11.2364
▁honest	-11.2364
▁hormone	-11.2364
▁husband	-11.2364
▁incredibl	-11.2364
▁injuries	-11.2364
▁insect	-11.2364
▁johanna	-11.2364
▁klein	-11.2364
▁landscape	-11.2364
▁league	-11.2364
▁monkey	-11.2364
▁mortgage	-11.2364
▁nunchuck	-11.2364
▁ocean	-11.2364
▁shimmy	-11.2364
▁significant	-11.2364
▁silent	-11.2364
▁skull	-11.2364
▁storage	-11.2364
▁toothbrush	-11.2364
▁uncomfortable	-11.2364
▁upgrade	-11.2364
▁varieties	-11.2364
▁vendors	-11.2364
▁yank	-11.2364
▁accident	-11.2364
▁document	-11.2364
▁glow	-11.2364
▁ratio	-11.2364
▁crush	-11.2364
▁eighteen	-11.2364
▁grill	-11.2364
▁serpentine	-11.2364
▁stunt	-11.2364
▁inhaling	-11.2364
▁politic	-11.2364
▁creme	-11.2364
▁socket	-11.2364
▁primer	-11.2364
▁silk	-11.2364
▁fakie	-11.2364
▁glute	-11.2364
▁recognize	-11.2364
▁oak	-11.2364
▁psychologist	-11.2364
▁injure	-11.2364
▁bound	-11.2364
▁lunch	-11.2364
▁dump	-11.2364
▁italian	-11.2364
▁appearance	-11.2364
shock	-11.2364
▁cardio	-11.2364
▁fantastic	-11.2364
ola	-11.2364
▁pork	-11.2364
▁slap	-11.2364
▁performance	-11.2364
fault	-11.2365
▁fever	-11.2365
_18-	-11.2365
▁sex	-11.2365
▁article	-11.2365
▁chopped	-11.2365
▁frozen	-11.2366
▁herbs	-11.2366
▁mature	-11.2366
▁mural	-11.2366
▁zop	-11.2366
▁potty	-11.2366
▁crust	-11.2366
▁scroll	-11.2367
▁vine	-11.2367
▁icon	-11.2367
▁grit	-11.2367
▁geography	-11.2368
▁immune	-11.2368
▁powerful	-11.2368
▁fry	-11.2369
▁personality	-11.2369
▁science	-11.2369
▁loud	-11.2369
▁fade	-11.2369
▁halfway	-11.237
▁coin	-11.2372
▁competitive	-11.2372
▁stopping	-11.2372
▁brain	-11.2373
▁theater	-11.2373
▁footwork	-11.2374
▁parker	-11.2375
▁counts	-11.2376
▁consideration	-11.2377
▁q	-11.2377
lash	-11.2379
▁hay	-11.2379
▁poker	-11.238
▁camel	-11.238
▁70	-11.2387
▁bronzer	-11.2389
▁securely	-11.2389
▁73	-11.2396
▁alternate	-11.2396
▁hanger	-11.24
▁stimulate	-11.24
▁independent	-11.24
qui	-11.2401
▁entirely	-11.2402
▁bleeding	-11.2405
▁moist	-11.2413
▁studie	-11.2419
▁lungs	-11.2422
▁voc	-11.2423
▁trib	-11.2423
▁wiggl	-11.2424
▁smoothly	-11.2424
▁polic	-11.2429
▁creamy	-11.2431
▁steeping	-11.2436
▁difficulty	-11.2442
▁brad	-11.2442
▁parrots	-11.2445
▁canal	-11.2451
▁tighter	-11.2454
▁explained	-11.2456
▁brewing	-11.2462
▁referr	-11.2465
▁actors	-11.247
▁feeding	-11.2471
▁fuller	-11.2477
▁shifting	-11.2479
kin	-11.2489
ches	-11.2489
▁indicates	-11.2491
▁mixer	-11.2492
▁gums	-11.2492
▁connecting	-11.2493
▁treated	-11.2498
▁rating	-11.2509
▁mail	-11.251
▁stat	-11.2515
▁masks	-11.2523
▁sold	-11.255
▁concerns	-11.2563
ied	-11.2568
ift	-11.2585
▁expressions	-11.2586
▁cleans	-11.2591
▁grinding	-11.2599
▁sparks	-11.2606
▁decid	-11.2627
▁buyer	-11.2629
▁blending	-11.2639
▁marking	-11.2645
▁hero	-11.2652
▁costumes	-11.2658
▁zo	-11.2662
▁burnt	-11.2691
▁dots	-11.2712
▁ki	-11.2722
▁heal	-11.2723
▁touched	-11.2724
▁stirr	-11.2739
dle	-11.2747
▁spice	-11.2749
ngling	-11.2774
▁restaurants	-11.2777
▁seats	-11.279
▁wa	-11.2802
▁testing	-11.2804
▁hearts	-11.2824
▁blocking	-11.2825
▁col	-11.2833
▁differently	-11.2867
▁sum	-11.2867
▁indoors	-11.2923
▁pointer	-11.2927
▁needles	-11.2929
▁stuffing	-11.2932
▁mechanics	-11.2947
▁breaths	-11.2953
▁toys	-11.2968
▁planting	-11.2991
▁west	-11.3034
▁hinges	-11.3046
▁sole	-11.3054
▁wok	-11.3057
▁95	-11.3103
bit	-11.3107
▁acts	-11.3119
▁irons	-11.3146
▁rats	-11.315
5%	-11.3162
▁cleanse	-11.3167
▁differences	-11.3187
▁ben	-11.3196
▁200	-11.3222
▁concern	-11.3237
▁upward	-11.3258
▁pon	-11.3259
▁clove	-11.3261
▁shadows	-11.327
▁tactic	-11.3273
▁fe	-11.3277
▁na	-11.3288
▁sock	-11.329
orn	-11.3296
▁slices	-11.3296
▁methods	-11.332
allow	-11.3336
▁blows	-11.3336
▁thanks	-11.3346
▁port	-11.3385
▁ver	-11.3412
▁scream	-11.3433
▁complet	-11.3435
▁80	-11.3438
came	-11.3444
while	-11.3444
mark	-11.3445
ister	-11.3447
clock	-11.3453
eight	-11.3455
▁comic	-11.3459
▁tru	-11.346
▁plea	-11.346
▁thorough	-11.3469
▁sail	-11.347
▁trop	-11.3472
▁educat	-11.3473
▁appear	-11.3474
▁consist	-11.3475
▁neighbor	-11.3475
▁hazard	-11.3475
▁abscess	-11.3475
▁algae	-11.3475
▁almond	-11.3475
▁associated	-11.3475
▁awesome	-11.3475
▁banana	-11.3475
▁beneficial	-11.3475
▁bladder	-11.3475
▁blah	-11.3475
▁bouncing	-11.3475
▁burrow	-11.3475
▁comfortably	-11.3475
▁compete	-11.3475
▁crevices	-11.3475
▁delicate	-11.3475
▁depot	-11.3475
▁diaper	-11.3475
▁distraction	-11.3475
▁divide	-11.3475
▁elegant	-11.3475
▁emergency	-11.3475
▁enforcement	-11.3475
▁execute	-11.3475
▁fingernail	-11.3475
▁friday	-11.3475
▁frog	-11.3475
▁fundamental	-11.3475
▁gauge	-11.3475
▁gradually	-11.3475
▁granula	-11.3475
▁headshot	-11.3475
▁hollow	-11.3475
▁infected	-11.3475
▁instructor	-11.3475
▁language	-11.3475
▁lauren	-11.3475
▁maneuver	-11.3475
▁mechanism	-11.3475
▁myrick	-11.3475
▁nowadays	-11.3475
▁nylon	-11.3475
▁papaya	-11.3475
▁patricia	-11.3475
▁phobia	-11.3475
▁physician	-11.3475
▁precise	-11.3475
▁refrigerator	-11.3475
▁repetition	-11.3475
▁snack	-11.3475
▁squad	-11.3475
▁surgery	-11.3475
▁syndrome	-11.3475
▁tablespoon	-11.3475
▁university	-11.3475
▁vanilla	-11.3475
▁vinyl	-11.3475
▁warrior	-11.3475
▁accessory	-11.3475
▁egypt	-11.3475
▁fungus	-11.3475
▁funnel	-11.3475
▁labor	-11.3475
▁outward	-11.3475
▁invented	-11.3475
▁trash	-11.3475
▁yarn	-11.3475
▁composition	-11.3475
▁carrot	-11.3475
▁disabilities	-11.3475
▁forehead	-11.3475
▁headache	-11.3475
▁jim	-11.3475
▁crucial	-11.3475
▁eaves	-11.3475
▁overcome	-11.3475
▁odor	-11.3475
▁bridle	-11.3475
▁nerve	-11.3475
▁goggles	-11.3475
▁jet	-11.3475
▁ginger	-11.3475
▁throat	-11.3475
▁calves	-11.3475
▁collectible	-11.3475
▁sprint	-11.3475
▁elevation	-11.3475
▁mash	-11.3475
▁slab	-11.3475
▁absolute	-11.3475
▁freestyle	-11.3476
▁grape	-11.3476
▁andrews	-11.3476
▁clearwater	-11.3476
▁zap	-11.3476
▁truth	-11.3476
▁unlike	-11.3476
▁luck	-11.3476
▁medication	-11.3476
▁hangover	-11.3477
ratche	-11.3477
▁stainless	-11.3477
▁sight	-11.3477
▁diving	-11.3477
▁broad	-11.3477
▁flop	-11.3477
▁snowman	-11.3477
▁mango	-11.3477
▁reflection	-11.3477
▁cylinder	-11.3478
▁epi	-11.3478
▁specialty	-11.3478
eddy	-11.3478
▁exit	-11.3479
▁slot	-11.3479
▁liter	-11.3479
▁primar	-11.3479
▁headstand	-11.3479
▁drainage	-11.3479
▁nil	-11.3479
▁additional	-11.3479
▁bust	-11.348
▁theory	-11.348
tory	-11.3481
▁lenses	-11.3481
▁proof	-11.3481
▁strainer	-11.3482
▁highway	-11.3482
▁tries	-11.3482
▁char	-11.3482
▁chrome	-11.3483
▁psychology	-11.3484
▁neckline	-11.3486
▁currently	-11.3487
▁largest	-11.3487
▁basement	-11.3487
▁format	-11.3489
▁carbohydrates	-11.3489
▁princ	-11.349
▁thus	-11.349
▁fastest	-11.3492
▁viewer	-11.3492
▁styling	-11.3492
▁younger	-11.3493
▁exposed	-11.3493
▁related	-11.3493
▁decreas	-11.3494
4-4_	-11.3495
▁friendly	-11.3495
▁inspired	-11.3497
▁flatter	-11.3498
▁sewer	-11.3501
▁tempo	-11.3505
▁footage	-11.3506
ified	-11.3508
▁34	-11.3509
▁chill	-11.3509
▁smoking	-11.351
▁cooker	-11.3514
▁regulations	-11.3515
▁53	-11.3517
▁frosting	-11.3521
▁readi	-11.3523
▁stapler	-11.3523
▁invit	-11.3525
▁photographing	-11.3526
right	-11.3526
▁formal	-11.353
▁masse	-11.3535
dab	-11.3538
▁meter	-11.3539
▁farther	-11.3539
▁craps	-11.3541
▁ya	-11.3546
▁cooler	-11.3556
▁social	-11.3556
▁enable	-11.3556
ww	-11.3558
▁bearing	-11.3561
▁rely	-11.3564
▁clues	-11.3567
▁minerals	-11.3567
▁locks	-11.3574
▁strain	-11.3578
▁selected	-11.3581
▁etc	-11.3581
▁dive	-11.3593
▁enchiladas	-11.3593
▁intervals	-11.3593
▁interior	-11.3599
▁bands	-11.3602
▁skiing	-11.3608
▁alex	-11.361
▁secondly	-11.3615
▁lap	-11.3624
▁span	-11.3628
▁discussed	-11.3628
▁flavored	-11.3628
▁lengthening	-11.363
▁producer	-11.3643
▁ty	-11.3651
4-4_1	-11.3655
▁services	-11.3681
▁fet	-11.3686
▁dec	-11.3687
▁tar	-11.3696
▁bagg	-11.3717
tell	-11.3719
▁glide	-11.3721
▁festivals	-11.3726
▁controll	-11.3726
▁fork	-11.3734
▁mac	-11.376
▁selling	-11.3774
▁tee	-11.3795
▁golfer	-11.3797
038	-11.3799
▁dan	-11.3801
▁clippers	-11.3806
▁41	-11.3813
vas	-11.3815
▁drilling	-11.3816
▁lats	-11.3825
▁ding	-11.3828
▁outdoors	-11.3833
▁punching	-11.386
▁mats	-11.3862
▁checked	-11.3871
▁importantly	-11.3878
▁ham	-11.388
▁wors	-11.3882
▁tabs	-11.3887
▁males	-11.3889
▁pairing	-11.3896
▁ho	-11.3898
▁matching	-11.39
▁minimiz	-11.39
▁handler	-11.3911
▁cheers	-11.3915
▁ending	-11.3925
▁mountains	-11.3941
▁flags	-11.3942
▁prepp	-11.396
▁females	-11.3996
▁inflat	-11.3997
rish	-11.4002
utch	-11.4041
▁offers	-11.4093
cial	-11.4107
▁ni	-11.412
▁artists	-11.4133
▁devices	-11.4161
▁compromise	-11.4165
org	-11.4184
▁costs	-11.4217
▁brands	-11.4217
▁importan	-11.4219
▁mental	-11.4225
nce	-11.4232
lot	-11.4255
▁russ	-11.4266
▁commands	-11.4273
▁rep	-11.4281
▁rotat	-11.429
lance	-11.4324
▁tw	-11.4328
▁repeats	-11.4329
_16-	-11.4405
▁brow	-11.4406
▁actions	-11.4414
ony	-11.4417
▁wo	-11.4446
▁wav	-11.4446
▁calling	-11.4449
▁swa	-11.446
▁explode	-11.4461
▁chunk	-11.4502
▁stake	-11.4505
unk	-11.4505
▁director	-11.4508
▁guest	-11.4508
▁journal	-11.4509
▁choo	-11.4514
▁backward	-11.4515
▁ages	-11.456
▁cutter	-11.4567
via	-11.4574
pped	-11.4577
▁involv	-11.4591
▁boxer	-11.4602
▁environmental	-11.462
▁gar	-11.462
▁gener	-11.4662
▁cran	-11.4672
▁convenien	-11.4678
▁cushion	-11.4681
▁surround	-11.4683
dge	-11.4692
house	-11.4693
flow	-11.4694
case	-11.4695
▁caus	-11.4699
asana	-11.4702
plant	-11.4702
ector	-11.4702
that	-11.4707
ball	-11.4708
▁organize	-11.4711
▁isolate	-11.4711
undry	-11.4712
enter	-11.4713
▁slipper	-11.4715
▁initial	-11.4718
▁poor	-11.4721
▁react	-11.4723
▁whisk	-11.4724
▁distinct	-11.4724
▁regard	-11.4724
▁imagina	-11.4724
▁vegeta	-11.4724
▁drama	-11.4725
▁quad	-11.4725
▁scoot	-11.4725
▁snatch	-11.4725
▁additives	-11.4725
▁bicep	-11.4725
▁blind	-11.4725
▁bruni	-11.4725
▁bulgaria	-11.4725
▁calcium	-11.4725
▁calculat	-11.4725
▁canadian	-11.4725
▁century	-11.4725
▁cichlids	-11.4725
▁cilantro	-11.4725
▁compact	-11.4725
▁context	-11.4725
▁corrosion	-11.4725
▁cricket	-11.4725
▁decorating	-11.4725
▁denture	-11.4725
▁determining	-11.4725
▁electronics	-11.4725
▁engaging	-11.4725
▁enhance	-11.4725
▁esteem	-11.4725
▁evaluat	-11.4725
▁excite	-11.4725
▁foremost	-11.4725
▁friction	-11.4725
▁gorgeous	-11.4725
▁grandmother	-11.4725
▁grapevine	-11.4725
▁hurricane	-11.4725
▁improvisation	-11.4725
▁indicator	-11.4725
▁industrial	-11.4725
▁influence	-11.4725
▁knuckle	-11.4725
▁ladder	-11.4725
▁mermaid	-11.4725
▁modify	-11.4725
▁moisturizing	-11.4725
▁mushroom	-11.4725
▁participant	-11.4725
▁pendant	-11.4725
▁piercing	-11.4725
▁professor	-11.4725
▁promenade	-11.4725
▁pyramid	-11.4725
▁quilt	-11.4725
▁rake	-11.4725
▁reapply	-11.4725
▁refractometer	-11.4725
▁reminder	-11.4725
▁remote	-11.4725
▁scarecrow	-11.4725
▁seafood	-11.4725
▁shallow	-11.4725
▁simmer	-11.4725
▁snout	-11.4725
▁strategy	-11.4725
▁suction	-11.4725
▁transaction	-11.4725
▁translucent	-11.4725
▁transport	-11.4725
▁tunnel	-11.4725
▁tutor	-11.4725
▁tuxedo	-11.4725
▁undercoat	-11.4725
▁victim	-11.4725
▁ashley	-11.4725
▁attempt	-11.4725
▁embellish	-11.4725
▁emphasize	-11.4725
▁ferry	-11.4725
▁german	-11.4725
▁knead	-11.4725
▁knit	-11.4725
▁strict	-11.4725
▁cement	-11.4725
▁kyle	-11.4725
▁rattle	-11.4725
▁smile	-11.4725
▁jig	-11.4725
▁foreground	-11.4725
▁intense	-11.4725
▁squish	-11.4725
▁backyard	-11.4725
▁properties	-11.4725
▁adequate	-11.4725
▁convertible	-11.4725
▁sunny	-11.4725
▁jawfish	-11.4725
▁larew	-11.4725
▁edible	-11.4725
▁disinfectant	-11.4725
▁hunt	-11.4725
▁insulate	-11.4725
▁atlant	-11.4725
▁portrait	-11.4725
▁nineteen	-11.4725
▁framing	-11.4725
▁mike	-11.4725
▁failure	-11.4725
▁tomorrow	-11.4725
▁rush	-11.4725
▁salary	-11.4725
▁sparkler	-11.4725
▁hydrated	-11.4725
▁possibilities	-11.4725
▁skinny	-11.4725
▁fumes	-11.4725
▁clinic	-11.4725
▁foul	-11.4725
▁bidding	-11.4725
▁laser	-11.4725
▁taut	-11.4725
▁trimmed	-11.4726
ature	-11.4726
▁boring	-11.4726
▁pathway	-11.4726
▁accessible	-11.4726
▁centerpiece	-11.4726
▁dart	-11.4726
▁identified	-11.4726
▁bang	-11.4726
▁network	-11.4726
▁gui	-11.4726
▁qualif	-11.4726
▁picket	-11.4726
▁zipper	-11.4726
▁intention	-11.4726
▁reproduction	-11.4726
▁breve	-11.4726
▁slant	-11.4726
▁snowboard	-11.4726
▁swab	-11.4726
▁waterproof	-11.4726
▁host	-11.4727
▁tarp	-11.4727
▁eyelashes	-11.4727
▁capacity	-11.4727
▁clogg	-11.4727
▁lane	-11.4727
▁swell	-11.4727
▁wise	-11.4728
▁wol	-11.4728
▁development	-11.4728
▁scarf	-11.4728
▁chopping	-11.4728
▁irri	-11.4728
▁lace	-11.4728
▁prone	-11.4729
▁lb	-11.4729
▁127	-11.4729
▁chap	-11.4729
▁tanning	-11.4729
▁layout	-11.473
▁shedding	-11.473
▁manna	-11.473
▁analyz	-11.473
rench	-11.4731
▁flipp	-11.4731
▁desk	-11.4731
▁ideally	-11.4731
▁central	-11.4731
▁crowd	-11.4731
▁thoroughly	-11.4732
▁alignment	-11.4732
▁relieve	-11.4734
▁station	-11.4735
▁download	-11.4735
▁steer	-11.4735
▁duty	-11.4736
▁spotting	-11.4736
▁visually	-11.4738
▁prevention	-11.4738
nightmare	-11.4739
cular	-11.4739
▁ven	-11.4741
▁combined	-11.4742
▁199	-11.4743
▁157	-11.4743
▁laugh	-11.4744
▁fasten	-11.4745
▁bori	-11.4747
▁killer	-11.4748
▁contribute	-11.4748
▁expos	-11.4749
▁firmly	-11.4752
▁roy	-11.4752
▁volt	-11.4753
▁effectively	-11.4754
▁individually	-11.4755
mmy	-11.4756
rinkle	-11.4756
▁consumer	-11.4757
▁signal	-11.4758
▁planne	-11.4766
▁surrounding	-11.4767
▁hardest	-11.4767
▁glossy	-11.4767
▁harden	-11.4769
▁noodles	-11.477
▁ideal	-11.4772
▁upright	-11.4772
▁screaming	-11.4772
▁spike	-11.4777
▁dye	-11.4777
▁healing	-11.4778
▁manager	-11.4781
▁85	-11.4784
start	-11.4788
▁46	-11.4791
▁69	-11.4795
▁killed	-11.4796
▁curved	-11.4796
▁grown	-11.48
▁stressed	-11.4801
▁35	-11.4804
▁greatest	-11.481
▁warn	-11.4814
▁lateral	-11.4814
▁breading	-11.4817
▁beautifully	-11.4818
▁chase	-11.4822
▁mist	-11.4833
▁floating	-11.4834
mails	-11.4834
▁seasoning	-11.484
▁served	-11.4842
▁lint	-11.4843
▁tucked	-11.4849
▁canoeing	-11.4851
▁links	-11.486
▁shears	-11.486
▁greg	-11.4875
lvin	-11.4885
▁petals	-11.489
▁numer	-11.4894
▁pine	-11.4897
eye	-11.4897
ripped	-11.4916
▁har	-11.4941
▁angled	-11.4943
▁stakes	-11.4951
bed	-11.4951
▁mal	-11.4955
▁boxers	-11.497
▁dressing	-11.497
▁peeling	-11.4971
▁comics	-11.4977
▁hurting	-11.498
▁stitching	-11.501
▁crystals	-11.5011
▁pod	-11.5012
▁introduc	-11.5019
tories	-11.5022
▁gobo	-11.5042
▁sharks	-11.5042
▁factors	-11.5046
▁nip	-11.5046
▁hooked	-11.5058
▁smok	-11.5071
▁twisted	-11.5074
dden	-11.5079
▁65	-11.5081
▁samples	-11.5104
▁heated	-11.5105
▁pant	-11.5106
▁stabilize	-11.5144
▁aces	-11.5144
▁33	-11.5226
▁motorcycles	-11.5228
▁transitions	-11.5259
▁kayaks	-11.5261
▁files	-11.5267
▁folding	-11.5286
▁bother	-11.5286
ode	-11.5304
▁cheeks	-11.5322
▁rollers	-11.5324
▁advantages	-11.5353
water	-11.5364
▁bonds	-11.5375
▁brushed	-11.54
▁exfoliat	-11.5415
ngle	-11.5453
▁logs	-11.5466
▁dripp	-11.5486
▁slope	-11.5524
▁carb	-11.5589
verse	-11.5714
where	-11.5728
-0	-11.5735
ana	-11.5743
▁adapt	-11.5831
▁39	-11.5851
▁robe	-11.5865
▁ran	-11.5896
▁depend	-11.5898
▁magneti	-11.5911
cross	-11.5914
▁tricep	-11.593
▁parent	-11.5939
▁disk	-11.5955
lon	-11.5964
ini	-11.5977
▁79	-11.599
cle	-11.6014
▁pill	-11.6062
▁stud	-11.6063
▁provid	-11.6081
▁weigh	-11.6097
color	-11.6098
▁stimulat	-11.61
▁temp	-11.6102
▁backpack	-11.6113
view	-11.612
neck	-11.6122
made	-11.6124
beat	-11.6128
home	-11.6132
stand	-11.6132
▁indirect	-11.6135
this	-11.6137
▁crunch	-11.6137
▁junk	-11.6138
▁temper	-11.6139
▁cloud	-11.614
▁psycholog	-11.6141
▁heavi	-11.6147
▁technical	-11.6147
▁bik	-11.6147
▁whi	-11.6149
▁express	-11.6152
▁complex	-11.6152
▁scienti	-11.6152
▁fool	-11.6153
▁auto	-11.6153
ological	-11.6153
▁occasion	-11.6153
▁$1	-11.6153
ization	-11.6153
lumin	-11.6153
▁administrat	-11.6153
▁acoustic	-11.6153
▁adhesive	-11.6153
▁airport	-11.6153
▁appetite	-11.6153
▁bristle	-11.6153
▁channel	-11.6153
▁cherry	-11.6153
▁cinnamon	-11.6153
▁communicating	-11.6153
▁coordinate	-11.6153
▁coordination	-11.6153
▁daisy	-11.6153
▁denim	-11.6153
▁distribution	-11.6153
▁divorce	-11.6153
▁doorknob	-11.6153
▁enamel	-11.6153
▁endurance	-11.6153
▁enlarger	-11.6153
▁entrance	-11.6153
▁enzyme	-11.6153
▁escape	-11.6153
▁essence	-11.6153
▁expansion	-11.6153
▁facility	-11.6153
▁families	-11.6153
▁faucet	-11.6153
▁firing	-11.6153
▁fragile	-11.6153
▁gasket	-11.6153
▁herself	-11.6153
▁illnesses	-11.6153
▁illustrator	-11.6153
▁jesus	-11.6153
▁karie	-11.6153
▁kryny	-11.6153
▁maddaloni	-11.6153
▁muffin	-11.6153
▁murderer	-11.6153
▁navigat	-11.6153
▁olympic	-11.6153
▁organizing	-11.6153
▁perimeter	-11.6153
▁petersburg	-11.6153
▁pigeon	-11.6153
▁platter	-11.6153
▁prayer	-11.6153
▁psychiatrist	-11.6153
▁pupil	-11.6153
▁radial	-11.6153
▁rail	-11.6153
▁receipt	-11.6153
▁removal	-11.6153
▁resemble	-11.6153
▁responsible	-11.6153
▁ruff	-11.6153
▁sebum	-11.6153
▁silhouette	-11.6153
▁smart	-11.6153
▁soothing	-11.6153
▁stool	-11.6153
▁submerge	-11.6153
▁supplements	-11.6153
▁tobacco	-11.6153
▁tortoise	-11.6153
▁toxoplasmosis	-11.6153
▁underwire	-11.6153
▁vibration	-11.6153
▁wilmington	-11.6153
▁worried	-11.6153
▁yolk	-11.6153
▁accomplish	-11.6153
▁bunny	-11.6153
▁creep	-11.6153
▁explore	-11.6153
▁extraction	-11.6153
▁fringe	-11.6153
▁garnish	-11.6153
▁isolation	-11.6153
▁lashes	-11.6153
▁negotiat	-11.6153
▁offensive	-11.6153
▁pigment	-11.6153
▁practical	-11.6153
▁smear	-11.6153
▁spiritual	-11.6153
▁suspen	-11.6153
▁tremendous	-11.6153
▁tumble	-11.6153
▁vacuum	-11.6153
▁aquatic	-11.6153
▁interfere	-11.6153
▁jerk	-11.6153
▁overnight	-11.6153
▁proceed	-11.6153
▁prun	-11.6153
etti	-11.6153
▁floral	-11.6153
▁region	-11.6153
▁ryan	-11.6153
▁claire	-11.6153
▁vital	-11.6153
▁adobe	-11.6153
▁ticket	-11.6153
▁glob	-11.6153
▁hockey	-11.6153
▁sizzl	-11.6153
▁motor	-11.6153
▁lily	-11.6153
▁squirt	-11.6153
rote	-11.6153
▁downhill	-11.6154
▁shout	-11.6154
▁puffiness	-11.6154
▁awful	-11.6154
▁pregnant	-11.6154
▁tonight	-11.6154
▁coast	-11.6154
▁graham	-11.6154
▁grand	-11.6154
▁incline	-11.6154
▁management	-11.6154
▁weekend	-11.6155
▁rubbed	-11.6155
▁100%	-11.6155
▁jason	-11.6155
▁cannon	-11.6155
▁cooper	-11.6155
▁assist	-11.6155
▁drape	-11.6155
▁affordable	-11.6155
▁slate	-11.6155
▁manageable	-11.6155
▁tax	-11.6155
▁comedy	-11.6155
▁replacement	-11.6156
▁ultimately	-11.6156
▁trapped	-11.6156
▁oregon	-11.6156
▁infuser	-11.6156
▁sneaky	-11.6156
▁popcorn	-11.6156
▁attachment	-11.6156
▁sift	-11.6156
▁stripper	-11.6156
▁shaping	-11.6156
▁alive	-11.6157
ifu	-11.6158
▁aquarium	-11.6158
▁outfitter	-11.6158
volley	-11.6158
▁128	-11.6159
▁wow	-11.6159
▁drawback	-11.6159
▁coil	-11.616
▁graphic	-11.616
▁170	-11.616
▁terrible	-11.616
▁assum	-11.616
▁140	-11.6161
▁arriv	-11.6162
▁adjustable	-11.6162
▁repaint	-11.6163
▁exhaling	-11.6163
▁carton	-11.6164
restrict	-11.6164
▁candy	-11.6164
▁jen	-11.6166
▁buildup	-11.6166
▁stra	-11.6168
▁reuse	-11.6168
▁manually	-11.6168
▁organized	-11.617
▁attaches	-11.617
▁149	-11.617
▁undo	-11.6171
▁lawn	-11.6172
▁molecules	-11.6173
▁bumper	-11.6173
verbal	-11.6174
▁discolor	-11.6174
▁stabilized	-11.6175
▁99	-11.6175
▁jane	-11.6176
▁warmth	-11.6177
fic	-11.6177
▁inject	-11.6178
▁107	-11.6179
▁stitches	-11.6179
▁formation	-11.618
▁quote	-11.6181
▁camping	-11.6182
ament	-11.6182
▁rebounding	-11.6183
▁established	-11.6184
▁conduc	-11.6185
▁113	-11.6186
▁cab	-11.6186
▁distribute	-11.6186
▁194	-11.6187
▁stacked	-11.6191
▁rougher	-11.6192
▁fee	-11.6193
▁christi	-11.6194
▁putty	-11.6197
▁ram	-11.6203
▁tensioner	-11.6204
▁fighter	-11.6204
▁missed	-11.6205
hoe	-11.6205
▁uno	-11.6206
▁engaged	-11.6206
▁calories	-11.6206
▁capitals	-11.6206
▁57	-11.6206
▁steamer	-11.6207
▁nu	-11.6211
▁loosely	-11.6213
▁incorporated	-11.6214
▁58	-11.6215
▁catches	-11.6217
▁71	-11.6219
▁melted	-11.622
point	-11.6222
▁processes	-11.6224
of	-11.6225
▁sill	-11.6228
▁lightening	-11.6228
orize	-11.6236
▁142	-11.6236
▁colon	-11.6239
▁scallops	-11.6241
▁55	-11.6242
▁reporter	-11.6242
▁66	-11.6242
▁tubing	-11.6248
▁smoother	-11.6254
stru	-11.6259
▁separated	-11.6265
▁mastered	-11.6265
▁died	-11.6267
▁scratching	-11.6267
▁financi	-11.6271
▁regularly	-11.6271
▁experienced	-11.6275
▁expenses	-11.6276
▁instructions	-11.6276
▁principles	-11.6276
▁bucks	-11.6276
▁saved	-11.6279
▁warmer	-11.6282
▁coarser	-11.6286
▁burner	-11.63
her	-11.6304
dominan	-11.6306
▁stairs	-11.6308
▁chameleons	-11.6311
▁obstacles	-11.6346
▁burned	-11.6355
▁riders	-11.6359
▁listening	-11.6359
▁dresser	-11.6376
0%	-11.6377
▁triceps	-11.6381
erial	-11.64
▁bout	-11.641
▁chunks	-11.6417
▁directors	-11.6419
lock	-11.6426
▁packing	-11.6472
▁correcting	-11.648
zo	-11.6482
▁fins	-11.6492
▁toner	-11.6493
▁song	-11.6515
▁brows	-11.6525
bail	-11.6545
▁combing	-11.6571
▁demonstrat	-11.6579
▁cal	-11.6587
▁celebrat	-11.659
▁121	-11.6711
▁dome	-11.6734
▁ug	-11.6738
▁accumulate	-11.676
▁slop	-11.6817
▁lubricate	-11.6834
olic	-11.6889
▁bon	-11.6901
leave	-11.6905
▁300	-11.696
role	-11.6963
ddle	-11.7016
erate	-11.7024
ex	-11.7035
▁tint	-11.7045
▁pe	-11.7082
gan	-11.7095
za	-11.7115
mus	-11.7135
▁cla	-11.7194
▁popp	-11.7249
▁mich	-11.7257
▁designate	-11.7355
▁89	-11.7367
ura	-11.7413
ub	-11.7422
teen	-11.7437
ray	-11.7485
▁gla	-11.751
2-3	-11.7517
▁tast	-11.7524
▁blonde	-11.753
▁manipulate	-11.7557
our	-11.7589
▁obstacle	-11.7597
▁wrinkle	-11.7605
▁component	-11.7606
▁indicate	-11.7607
▁chan	-11.7609
▁gum	-11.7616
▁spade	-11.7623
dding	-11.7625
▁petal	-11.7634
haw	-11.7672
▁magn	-11.7674
ison	-11.7709
▁receiv	-11.7745
worker	-11.7747
▁bou	-11.7759
▁fo	-11.7766
style	-11.7776
inkle	-11.7776
▁consume	-11.7776
▁bronze	-11.7777
▁moisturize	-11.7777
production	-11.7786
▁balanc	-11.7786
ounce	-11.7788
▁lov	-11.7788
click	-11.7789
keep	-11.7789
foot	-11.7789
step	-11.779
creasing	-11.779
word	-11.7794
▁publish	-11.7798
duct	-11.7802
allet	-11.7803
▁seni	-11.7804
▁integrate	-11.7806
▁jones	-11.7807
▁detect	-11.7813
▁buff	-11.7813
▁sal	-11.7814
stock	-11.7816
▁according	-11.7817
▁plast	-11.7818
script	-11.7818
▁threat	-11.7818
▁fantas	-11.7819
▁confine	-11.7819
▁reinforce	-11.7819
▁watt	-11.782
▁favor	-11.782
▁architect	-11.782
▁skate	-11.782
indy	-11.782
cycl	-11.782
▁croco	-11.782
▁flamingo	-11.782
▁appetiz	-11.782
▁utilit	-11.782
counterclockwise	-11.782
▁activate	-11.782
▁adhd	-11.782
▁altogether	-11.782
▁amateur	-11.782
▁amelia	-11.782
▁amplifier	-11.782
▁applies	-11.782
▁arrange	-11.782
▁asynch	-11.782
▁automo	-11.782
▁babies	-11.782
▁behalf	-11.782
▁blast	-11.782
▁broadcast	-11.782
▁burpies	-11.782
▁caribbean	-11.782
▁caricature	-11.782
▁combustible	-11.782
▁conclude	-11.782
▁configuration	-11.782
▁correspond	-11.782
▁creativity	-11.782
▁crocosmia	-11.782
▁decade	-11.782
▁dementia	-11.782
▁diffuse	-11.782
▁diminished	-11.782
▁dissolv	-11.782
▁dizzy	-11.782
▁emulsion	-11.782
▁extruder	-11.782
▁flutter	-11.782
▁follicle	-11.782
▁francisco	-11.782
▁gadget	-11.782
▁ganache	-11.782
▁hairspray	-11.782
▁horribl	-11.782
▁hulk	-11.782
▁hungry	-11.782
▁hurdle	-11.782
▁hydrogen	-11.782
▁identical	-11.782
▁illustrate	-11.782
▁intended	-11.782
▁intermediate	-11.782
▁journey	-11.782
▁kidney	-11.782
▁meringue	-11.782
▁mosaic	-11.782
▁mushy	-11.782
▁neglect	-11.782
▁nonsense	-11.782
▁obliques	-11.782
▁organism	-11.782
▁outlook	-11.782
▁paintbrush	-11.782
▁penetrat	-11.782
▁peonies	-11.782
▁phrase	-11.782
▁picnic	-11.782
▁pliable	-11.782
▁poetry	-11.782
▁prescribe	-11.782
▁promote	-11.782
▁racquet	-11.782
▁reliable	-11.782
▁remedies	-11.782
▁repellent	-11.782
▁respirator	-11.782
▁responsibility	-11.782
▁satisf	-11.782
▁shimmer	-11.782
▁shrunken	-11.782
▁solitaire	-11.782
▁spool	-11.782
▁strategies	-11.782
▁streak	-11.782
▁sunglasses	-11.782
▁survey	-11.782
▁syrup	-11.782
▁tarleton	-11.782
▁terra	-11.782
▁therapeutic	-11.782
▁therapies	-11.782
▁toothpaste	-11.782
▁tortillas	-11.782
▁uncommon	-11.782
▁velocity	-11.782
▁vinegar	-11.782
▁vorrac	-11.782
▁wheelchair	-11.782
renovations	-11.782
▁death	-11.782
▁joke	-11.782
▁moderate	-11.782
▁plumber	-11.782
▁plumbing	-11.782
▁firefly	-11.782
▁rapid	-11.782
▁scrubbing	-11.782
▁thrusts	-11.782
▁bank	-11.782
▁deuce	-11.782
▁indication	-11.782
▁jogging	-11.782
▁piston	-11.782
▁reflexolog	-11.782
▁tuning	-11.782
▁weird	-11.782
▁icebreaker	-11.782
▁reef	-11.782
▁umb	-11.782
▁basil	-11.782
▁mites	-11.782
▁amanda	-11.782
▁population	-11.782
ogen	-11.782
▁urina	-11.782
▁robot	-11.782
▁diesel	-11.782
▁comedian	-11.782
▁oftentimes	-11.782
▁salsa	-11.782
▁thru	-11.782
▁disconnect	-11.782
▁peddle	-11.782
▁basin	-11.782
▁hobby	-11.782
▁equip	-11.782
▁scrapbook	-11.782
▁stylist	-11.782
olster	-11.782
▁spacing	-11.782
▁storm	-11.782
kfg	-11.782
▁division	-11.782
▁award	-11.782
▁greenery	-11.782
▁western	-11.782
▁irritate	-11.782
▁metabolism	-11.782
▁balm	-11.782
▁fudge	-11.782
temporary	-11.782
▁mastry	-11.7821
▁marsh	-11.7821
▁veil	-11.7821
▁holga	-11.7821
▁padding	-11.7821
▁horn	-11.7821
▁crumb	-11.7821
▁yeast	-11.7821
▁affiliation	-11.7821
▁feedback	-11.7821
▁devil	-11.7821
▁chapped	-11.7821
▁sandpaper	-11.7821
▁groom	-11.7821
▁orientation	-11.7821
▁signature	-11.7821
▁alter	-11.7821
▁ranch	-11.7821
▁porous	-11.7821
▁latte	-11.7821
▁neutralize	-11.7822
▁eyelash	-11.7822
▁marble	-11.7822
▁portable	-11.7822
▁complexion	-11.7822
▁cubes	-11.7822
▁refu	-11.7822
▁pale	-11.7822
ttle	-11.7823
▁sunlight	-11.7823
▁pageant	-11.7823
▁solar	-11.7823
▁progression	-11.7823
▁propel	-11.7824
unch	-11.7824
▁goalie	-11.7824
▁assembly	-11.7824
▁hiding	-11.7824
▁indian	-11.7825
iday	-11.7825
▁pinkie	-11.7825
▁keyboard	-11.7825
▁lars	-11.7825
▁vice	-11.7825
▁dipping	-11.7825
▁fluffy	-11.7826
▁hopping	-11.7826
▁slipping	-11.7826
▁160	-11.7826
▁118	-11.7827
▁exception	-11.7827
▁tabletop	-11.7827
▁menu	-11.7827
▁contraction	-11.7827
▁installation	-11.7828
▁gut	-11.7828
▁163	-11.7828
▁1.5	-11.7828
▁initially	-11.7829
▁174	-11.7829
▁allowance	-11.7829
▁125	-11.7829
▁refined	-11.7829
▁129	-11.7829
▁115	-11.7829
▁presentation	-11.783
▁nest	-11.783
▁scratches	-11.7831
▁someplace	-11.7831
▁suggestion	-11.7831
▁147	-11.7832
▁internally	-11.7832
▁188	-11.7832
▁mesh	-11.7832
▁brighten	-11.7833
▁dimensional	-11.7833
▁swan	-11.7833
▁math	-11.7834
▁kerr	-11.7834
▁consistently	-11.7835
▁97	-11.7836
▁relaxation	-11.7836
▁clipped	-11.7836
▁relate	-11.7837
▁kenn	-11.7837
▁integrated	-11.7837
▁booster	-11.7838
▁employer	-11.7838
▁monthly	-11.7838
▁igg	-11.7838
onie	-11.7839
▁suddenly	-11.7839
▁145	-11.7839
▁moss	-11.7841
▁154	-11.7842
essica	-11.7843
▁130	-11.7844
▁tempered	-11.7845
▁leftover	-11.7845
▁cheaper	-11.7846
▁union	-11.7846
▁dresses	-11.7846
▁tougher	-11.7847
▁dishes	-11.7849
▁96	-11.7849
copie	-11.7853
▁farthe	-11.7853
▁translate	-11.7854
▁backbone	-11.7862
orous	-11.7862
▁sent	-11.7866
▁organ	-11.7867
▁112	-11.7868
▁inspire	-11.7869
▁105	-11.787
▁47	-11.787
▁83	-11.7872
handed	-11.7872
▁attacker	-11.7873
▁88	-11.7877
▁mana	-11.788
▁arguments	-11.7883
▁sunflowers	-11.7883
▁slick	-11.7885
▁parties	-11.7887
▁nav	-11.7889
▁received	-11.7889
▁rafting	-11.7894
▁gill	-11.7902
▁engineer	-11.7909
▁matting	-11.7914
▁dad	-11.7914
▁rider	-11.792
▁toast	-11.7929
▁secured	-11.7931
ffic	-11.7934
▁breakup	-11.7935
issi	-11.7938
▁led	-11.7941
▁provided	-11.7944
▁kayaking	-11.7959
▁torn	-11.7962
▁performing	-11.8004
▁mor	-11.8006
▁stringer	-11.8007
▁fashioned	-11.8012
▁detailed	-11.8025
▁bob	-11.8027
▁broke	-11.803
rine	-11.8036
▁windy	-11.8038
▁lit	-11.8038
▁tipp	-11.8042
▁grate	-11.8044
▁listing	-11.8059
▁avoided	-11.806
▁cent	-11.8061
30_	-11.8071
ush	-11.8086
▁spec	-11.8096
▁blond	-11.8119
▁mis	-11.8125
▁stretchy	-11.8132
bby	-11.815
▁jacki	-11.8183
▁grac	-11.8208
▁breaker	-11.8245
▁gestur	-11.8272
▁examin	-11.8311
amp	-11.8367
▁skipp	-11.8445
▁elevate	-11.8485
clean	-11.8572
ever	-11.8602
ova	-11.8627
▁110	-11.87
▁101	-11.8723
phy	-11.8741
erable	-11.8757
-0_	-11.8759
▁painter	-11.8791
▁31	-11.8809
berg	-11.8818
iva	-11.8877
potting	-11.9165
_19-	-11.935
▁halt	-11.9415
day	-11.9509
cho	-11.9574
▁hydra	-11.958
▁chameleon	-11.9597
▁stair	-11.9601
▁enchilada	-11.9601
▁interval	-11.9601
▁tick	-11.9603
▁magazine	-11.9603
▁supplie	-11.9609
▁mile	-11.961
▁actor	-11.9612
▁link	-11.9614
ointed	-11.9677
▁shear	-11.9696
icker	-11.9701
▁emer	-11.9707
amper	-11.9728
▁custom	-11.9741
▁cul	-11.9745
▁162	-11.9747
▁digit	-11.9747
ough	-11.9764
ground	-11.9767
▁rebound	-11.9778
▁amaz	-11.9783
down	-11.9787
book	-11.9788
laugh	-11.9788
pong	-11.9788
tangle	-11.9789
glass	-11.9789
cloth	-11.9789
fold	-11.9789
just	-11.9789
watch	-11.9789
colored	-11.979
fill	-11.9792
okay	-11.9793
▁musc	-11.9796
hood	-11.9801
▁multipl	-11.9805
▁confuse	-11.9807
▁locate	-11.9807
▁suppose	-11.9807
▁define	-11.9807
▁absolut	-11.9808
evil	-11.9808
▁surviv	-11.9808
▁sen	-11.9809
▁vol	-11.9809
goal	-11.981
▁spoke	-11.9812
ford	-11.9812
▁constrict	-11.9812
kay	-11.9814
cardi	-11.9814
▁tact	-11.9817
tually	-11.9817
▁skew	-11.9818
▁relation	-11.982
▁descend	-11.982
▁fertiliz	-11.982
▁reinstall	-11.982
&	-11.982
eaux	-11.982
radiator	-11.982
▁advise	-11.982
▁agility	-11.982
▁alligator	-11.982
▁alphabet	-11.982
▁antibiotic	-11.982
▁antibodies	-11.982
▁appreciate	-11.982
▁asymmetric	-11.982
▁audio	-11.982
▁automobile	-11.982
▁backstroke	-11.982
▁bamboo	-11.982
▁bandsaw	-11.982
▁blink	-11.982
▁boundaries	-11.982
▁buffalo	-11.982
▁calligraph	-11.982
▁casino	-11.982
▁cavity	-11.982
▁chuck	-11.982
▁collapse	-11.982
▁competing	-11.982
▁complain	-11.982
▁complication	-11.982
▁confusing	-11.982
▁considerably	-11.982
▁consuming	-11.982
▁creek	-11.982
▁cupcake	-11.982
▁dandasana	-11.982
▁davis	-11.982
▁deflection	-11.982
▁denial	-11.982
▁deposit	-11.982
▁destination	-11.982
▁diarrhea	-11.982
▁discou	-11.982
▁disorder	-11.982
▁enclosed	-11.982
▁exchange	-11.982
▁feminine	-11.982
▁fingerpicking	-11.982
▁footwear	-11.982
▁fragrance	-11.982
▁froth	-11.982
▁frustrating	-11.982
▁geometr	-11.982
▁ginjo	-11.982
▁gloomy	-11.982
▁goddess	-11.982
▁honor	-11.982
▁horseradish	-11.982
▁illusion	-11.982
▁insurance	-11.982
▁intelligent	-11.982
▁interception	-11.982
▁intimidate	-11.982
▁intricate	-11.982
▁liqueur	-11.982
▁married	-11.982
▁massachusetts	-11.982
▁mexico	-11.982
▁mimic	-11.982
▁nutmeg	-11.982
▁oasis	-11.982
▁pancake	-11.982
▁paragraph	-11.982
▁peralite	-11.982
▁petunia	-11.982
▁pistol	-11.982
▁pixels	-11.982
▁possum	-11.982
▁printmaking	-11.982
▁pursue	-11.982
▁radiate	-11.982
▁radius	-11.982
▁reduction	-11.982
▁regrow	-11.982
▁remedy	-11.982
▁removable	-11.982
▁revenue	-11.982
▁saturday	-11.982
▁sauvignon	-11.982
▁scenario	-11.982
▁scheme	-11.982
▁scott	-11.982
▁screwdriver	-11.982
▁scrunch	-11.982
▁sencha	-11.982
▁sentinel	-11.982
▁shiraz	-11.982
▁silicone	-11.982
▁smirnoff	-11.982
▁smudge	-11.982
▁society	-11.982
▁software	-11.982
▁spatula	-11.982
▁spirit	-11.982
▁striking	-11.982
▁switzerland	-11.982
▁technician	-11.982
▁terminology	-11.982
▁treasure	-11.982
▁triathlon	-11.982
▁uneven	-11.982
▁utensils	-11.982
▁vertebra	-11.982
▁vibrate	-11.982
▁wardrobe	-11.982
▁yixing	-11.982
cadill	-11.982
▁boulder	-11.982
▁capelet	-11.982
▁commode	-11.982
▁decay	-11.982
▁delay	-11.982
▁desert	-11.982
▁distracted	-11.982
▁fisherman	-11.982
▁harvest	-11.982
▁helmet	-11.982
▁impart	-11.982
▁limp	-11.982
▁nasty	-11.982
▁prominen	-11.982
▁promise	-11.982
▁refresh	-11.982
▁spouse	-11.982
cific	-11.982
conscious	-11.982
▁arrow	-11.982
▁detach	-11.982
▁distinguish	-11.982
▁explosi	-11.982
▁fried	-11.982
▁trunk	-11.982
▁adhere	-11.982
▁germs	-11.982
▁kelli	-11.982
▁plexi	-11.982
▁shy	-11.982
▁sensor	-11.982
▁shelter	-11.982
▁venom	-11.982
▁alarm	-11.982
▁antioxidants	-11.982
▁oval	-11.982
▁slicing	-11.982
▁teammate	-11.982
▁england	-11.982
▁freedom	-11.982
▁aesthetic	-11.982
▁meditat	-11.982
▁sabre	-11.982
▁winner	-11.982
▁bulk	-11.982
▁spent	-11.982
▁polymer	-11.982
▁shortstop	-11.982
▁peony	-11.982
▁inward	-11.982
▁veterinarian	-11.982
▁liberal	-11.982
▁stubb	-11.982
▁underarm	-11.982
▁anticipat	-11.982
scope	-11.982
▁padded	-11.982
▁dorsi	-11.982
▁earned	-11.982
▁suspect	-11.982
▁ahh	-11.982
▁fiberglass	-11.982
▁magnify	-11.982
▁descent	-11.982
▁alien	-11.982
▁nude	-11.982
▁assess	-11.982
▁forgot	-11.982
▁hunch	-11.982
▁emil	-11.982
▁prescription	-11.982
▁copyright	-11.982
▁initiati	-11.9821
▁assessment	-11.9821
▁belay	-11.9821
▁entertainment	-11.9821
▁humidity	-11.9821
▁assignment	-11.9821
▁summertime	-11.9821
▁cleft	-11.9821
▁fingerprint	-11.9821
▁hype	-11.9821
▁undulation	-11.9821
▁synch	-11.9821
▁buttonhole	-11.9821
▁indent	-11.9821
▁indeed	-11.9821
▁richard	-11.9821
▁deet	-11.9821
▁thailand	-11.9821
▁wattage	-11.9821
▁regardless	-11.9821
▁dehydration	-11.9821
▁elementary	-11.9821
▁blemishes	-11.9821
▁greet	-11.9821
▁occurred	-11.9821
▁dash	-11.9821
▁arterial	-11.9821
▁groin	-11.9821
▁voltage	-11.9821
▁du	-11.9821
▁agreement	-11.9821
▁retail	-11.9821
▁deficiency	-11.9822
▁vein	-11.9822
hanna	-11.9822
▁magnetism	-11.9822
▁carved	-11.9822
▁lager	-11.9822
▁wiping	-11.9822
▁lapel	-11.9822
▁touchdown	-11.9823
▁pipette	-11.9823
▁chili	-11.9823
▁assure	-11.9823
▁acceptable	-11.9823
▁gmail	-11.9823
▁fairway	-11.9823
▁spindle	-11.9823
▁fuzz	-11.9823
▁subjective	-11.9823
▁completion	-11.9823
▁ramp	-11.9824
▁loan	-11.9824
▁igoogle	-11.9824
▁disclose	-11.9824
▁claw	-11.9825
▁eyeball	-11.9825
▁electrician	-11.9825
▁grasp	-11.9825
▁fortunately	-11.9825
▁continuously	-11.9825
▁excessive	-11.9825
▁trav	-11.9825
▁delt	-11.9825
nife	-11.9825
▁commu	-11.9825
▁dix	-11.9826
▁tide	-11.9826
▁invest	-11.9826
▁saucers	-11.9826
▁lifetime	-11.9826
▁weaken	-11.9826
▁yardage	-11.9826
pleasant	-11.9826
▁220	-11.9827
▁nutrition	-11.9827
hine	-11.9827
▁template	-11.9827
▁spoken	-11.9828
▁erase	-11.9829
▁ingest	-11.9829
▁athletes	-11.983
lime	-11.983
▁254	-11.9831
▁filtration	-11.9832
▁119	-11.9832
▁244	-11.9832
▁hairstyle	-11.9834
▁additionally	-11.9834
▁defined	-11.9834
lywood	-11.9835
ulf	-11.9835
▁178	-11.9835
▁flexion	-11.9836
▁tasty	-11.9836
▁165	-11.9836
▁169	-11.9837
▁roman	-11.9837
▁138	-11.9839
▁efficiently	-11.9839
▁quietly	-11.9839
ette	-11.984
▁vertically	-11.9841
▁diagonally	-11.9842
▁98	-11.9842
▁259	-11.9842
▁collector	-11.9843
▁restore	-11.9843
▁seriously	-11.9843
▁isolated	-11.9844
▁131	-11.9844
olog	-11.9844
▁pitches	-11.9845
▁dau	-11.9845
▁panic	-11.9845
▁reflector	-11.9846
▁pastel	-11.9846
▁strongest	-11.9846
▁hiking	-11.9848
▁physically	-11.9848
▁dewy	-11.9849
▁horizontally	-11.9849
▁pond	-11.985
rtment	-11.9853
▁surprised	-11.9853
▁hotel	-11.9858
▁lately	-11.9863
▁camp	-11.9863
▁colorful	-11.9863
icable	-11.9866
▁151	-11.9867
▁optional	-11.9867
osity	-11.9868
▁licensed	-11.9869
▁sad	-11.9871
▁climber	-11.9875
▁aligned	-11.9875
▁forever	-11.9879
▁stickers	-11.988
ravel	-11.9883
▁43	-11.9885
▁separately	-11.9886
▁77	-11.9887
▁106	-11.9889
▁carol	-11.989
▁cushioning	-11.9893
uchin	-11.9898
▁similarly	-11.9902
▁68	-11.9902
▁premi	-11.9909
▁parka	-11.9911
▁generate	-11.9917
▁annual	-11.9923
▁mounted	-11.9924
▁professionally	-11.9924
▁moldy	-11.9926
▁hike	-11.9933
▁performed	-11.9934
▁waxes	-11.9934
▁contaminate	-11.9934
▁included	-11.9939
▁cracked	-11.9943
▁asana	-11.9944
▁sliced	-11.9946
▁driven	-11.9951
▁sixes	-11.9952
▁flexed	-11.9957
▁soaked	-11.9957
▁freely	-11.9965
▁56	-11.9967
▁eu	-11.9977
▁bog	-12
▁bun	-12.0022
▁versa	-12.0029
▁81	-12.005
rescent	-12.0066
mediated	-12.007
%	-12.0101
▁fuse	-12.0104
minate	-12.0114
eviate	-12.0132
▁magnet	-12.0179
▁mudd	-12.0187
▁flu	-12.0201
▁kneel	-12.0213
aze	-12.0231
▁foc	-12.0236
▁budd	-12.0344
▁che	-12.0369
▁mur	-12.0384
4_7-	-12.0402
▁pati	-12.0405
ogram	-12.0417
▁printer	-12.0421
4_5-	-12.0454
4_3-	-12.0487
▁flak	-12.0553
4_15-	-12.0569
mission	-12.0576
ama	-12.0621
▁concentr	-12.0628
4_6-	-12.0637
4_8-	-12.0704
▁personalize	-12.0713
4_4-	-12.0735
▁replac	-12.0743
4_2-	-12.0775
4_1-	-12.0886
▁pun	-12.093
dual	-12.0983
eased	-12.1085
▁mic	-12.1119
▁preserve	-12.1122
▁sto	-12.1148
▁pol	-12.1203
▁uncle	-12.1209
ption	-12.1261
▁accumulat	-12.1287
▁cardia	-12.1392
oil	-12.1433
spect	-12.1455
▁barb	-12.1576
room	-12.1593
▁patien	-12.1688
ghter	-12.1716
▁believ	-12.1728
immers	-12.1747
▁glid	-12.1749
suasive	-12.1751
▁mobil	-12.1904
▁mono	-12.1919
▁$50	-12.1964
▁prepai	-12.1983
broker	-12.1988
ggy	-12.2009
ngue	-12.2019
ggle	-12.2075
stones	-12.2085
▁buck	-12.2086
▁expense	-12.2098
▁instruction	-12.2098
▁principle	-12.2098
▁clue	-12.2101
▁mineral	-12.2101
▁parrot	-12.2103
▁origin	-12.2103
▁pelvi	-12.2104
▁hamstring	-12.2105
▁fingertip	-12.2112
▁figur	-12.2119
▁styl	-12.2135
burns	-12.2152
▁produc	-12.2187
▁formula	-12.2196
▁mul	-12.2211
pical	-12.2218
dependent	-12.2223
uchi	-12.2245
▁jam	-12.2253
▁lou	-12.2261
▁sho	-12.2264
load	-12.2266
▁manufacture	-12.2272
▁succ	-12.2276
▁poke	-12.2277
rolling	-12.228
▁damag	-12.2281
▁curv	-12.2281
▁separat	-12.2287
luck	-12.2288
vision	-12.2288
pole	-12.2288
fiber	-12.2289
sounds	-12.2289
bulbs	-12.2289
exist	-12.2289
throw	-12.2289
with	-12.2289
two	-12.229
based	-12.2291
six	-12.2291
▁thinne	-12.2292
▁employ	-12.2292
tail	-12.2295
wrap	-12.2295
▁bind	-12.2296
ographic	-12.2298
▁relie	-12.2301
▁revers	-12.2302
▁blu	-12.2303
mulate	-12.2305
▁discourage	-12.2305
▁circl	-12.2305
itted	-12.2306
▁refine	-12.2306
▁terribl	-12.2307
▁immun	-12.2308
▁graphi	-12.2308
▁geograph	-12.2308
▁opportunit	-12.2308
▁gro	-12.2309
▁energ	-12.231
life	-12.2311
▁africa	-12.2312
▁numb	-12.2312
▁analy	-12.2313
fish	-12.2313
▁cylind	-12.2313
▁viol	-12.2313
▁fortunate	-12.2314
▁cogniti	-12.2314
▁constant	-12.2314
▁immediate	-12.2314
sale	-12.2316
▁bin	-12.2316
lasses	-12.2317
▁interact	-12.2317
ptical	-12.2318
thus	-12.2318
▁bush	-12.2318
▁chick	-12.2319
▁commit	-12.2319
▁orient	-12.2319
▁sync	-12.2319
▁humid	-12.2319
▁possibilit	-12.2319
▁conven	-12.2319
▁russel	-12.232
▁sculpt	-12.232
▁shri	-12.232
▁convert	-12.232
▁$4	-12.232
▁unplug	-12.232
ldxvg	-12.232
▁diagram	-12.232
▁overwhelm	-12.232
▁profit	-12.232
▁retouch	-12.232
▁suffer	-12.232
addario	-12.232
merchant	-12.232
oomph	-12.232
propyl	-12.232
tchen	-12.232
▁$20	-12.232
▁abilities	-12.232
▁adventure	-12.232
▁altitude	-12.232
▁applicable	-12.232
▁apprais	-12.232
▁arizona	-12.232
▁astringent	-12.232
▁backcourt	-12.232
▁blanc	-12.232
▁brainstorm	-12.232
▁brunette	-12.232
▁burgundy	-12.232
▁camisole	-12.232
▁casual	-12.232
▁chamomile	-12.232
▁circumstances	-12.232
▁clothespin	-12.232
▁colander	-12.232
▁colubridae	-12.232
▁condens	-12.232
▁cornmeal	-12.232
▁cosmetics	-12.232
▁crooked	-12.232
▁cucumber	-12.232
▁cuenco	-12.232
▁curriculum	-12.232
▁density	-12.232
▁depression	-12.232
▁detriment	-12.232
▁devote	-12.232
▁disapp	-12.232
▁discharge	-12.232
▁displacement	-12.232
▁distille	-12.232
▁distributor	-12.232
▁edited	-12.232
▁electrology	-12.232
▁embroider	-12.232
▁energetic	-12.232
▁envelope	-12.232
▁equity	-12.232
▁estimat	-12.232
▁evidence	-12.232
▁extensive	-12.232
▁fahrenheit	-12.232
▁fencing	-12.232
▁fragrant	-12.232
▁frustrated	-12.232
▁garbage	-12.232
▁genius	-12.232
▁hallway	-12.232
▁happie	-12.232
▁hickory	-12.232
▁hospital	-12.232
▁hurry	-12.232
▁ignite	-12.232
▁increment	-12.232
▁ineffective	-12.232
▁inflammation	-12.232
▁integrity	-12.232
▁intimidating	-12.232
▁invisible	-12.232
▁judgment	-12.232
▁keeley	-12.232
▁kickboxing	-12.232
▁knight	-12.232
▁koshinage	-12.232
▁landlord	-12.232
▁ligament	-12.232
▁lilies	-12.232
▁limon	-12.232
▁lollipops	-12.232
▁lubricant	-12.232
▁mailbox	-12.232
▁manifold	-12.232
▁marathon	-12.232
▁margarine	-12.232
▁meerkat	-12.232
▁monoxide	-12.232
▁mosquito	-12.232
▁motorcycling	-12.232
▁northwest	-12.232
▁ointment	-12.232
▁overpower	-12.232
▁pajama	-12.232
▁palette	-12.232
▁parasites	-12.232
▁participate	-12.232
▁patrick	-12.232
▁pediatrician	-12.232
▁periodically	-12.232
▁perspective	-12.232
▁pigtail	-12.232
▁placket	-12.232
▁pouch	-12.232
▁praise	-12.232
▁preferably	-12.232
▁pregnancy	-12.232
▁puppies	-12.232
▁python	-12.232
▁quadricep	-12.232
▁receptacle	-12.232
▁reception	-12.232
▁rehearsals	-12.232
▁request	-12.232
▁residency	-12.232
▁resolve	-12.232
▁retention	-12.232
▁retrieve	-12.232
▁saturn	-12.232
▁scapula	-12.232
▁scheduling	-12.232
▁skating	-12.232
▁sludge	-12.232
▁sprocket	-12.232
▁steak	-12.232
▁substance	-12.232
▁substitute	-12.232
▁sukhasana	-12.232
▁summarize	-12.232
▁surgeon	-12.232
▁swoop	-12.232
▁symmetrical	-12.232
▁symphony	-12.232
▁telegraph	-12.232
▁tepee	-12.232
▁thief	-12.232
▁threshold	-12.232
▁tuft	-12.232
▁tulip	-12.232
▁turbine	-12.232
▁ultra	-12.232
▁unfamiliar	-12.232
▁unlimited	-12.232
▁unstable	-12.232
▁victorian	-12.232
▁windmill	-12.232
▁workbench	-12.232
sanctuary	-12.232
▁asleep	-12.232
▁crumple	-12.232
▁defrost	-12.232
▁dictate	-12.232
▁dispense	-12.232
▁distort	-12.232
▁econom	-12.232
▁explanat	-12.232
▁homepage	-12.232
▁marcel	-12.232
▁nourish	-12.232
▁president	-12.232
▁swivel	-12.232
▁tournament	-12.232
▁venue	-12.232
▁walnut	-12.232
▁whistle	-12.232
▁cartoon	-12.232
▁disturb	-12.232
▁flamingosis	-12.232
▁gymnastics	-12.232
▁hawaii	-12.232
▁impersona	-12.232
▁jog	-12.232
▁offstage	-12.232
▁protrude	-12.232
▁puck	-12.232
▁sandwich	-12.232
▁shelves	-12.232
▁sprout	-12.232
▁toxins	-12.232
▁unpack	-12.232
▁brick	-12.232
▁ferment	-12.232
▁lawyer	-12.232
▁marina	-12.232
▁ribbing	-12.232
▁snip	-12.232
▁360	-12.232
▁flee	-12.232
▁illuminat	-12.232
▁preheat	-12.232
▁accentuate	-12.232
▁counteract	-12.232
▁rotor	-12.232
▁yummy	-12.232
▁cider	-12.232
▁dooley	-12.232
▁fascinat	-12.232
▁joy	-12.232
▁neely	-12.232
▁orbital	-12.232
▁sexual	-12.232
▁demand	-12.232
▁inverted	-12.232
▁richardson	-12.232
konasana	-12.232
▁apparent	-12.232
▁congesti	-12.232
▁discipline	-12.232
▁presence	-12.232
▁lick	-12.232
▁mitt	-12.232
▁resell	-12.232
▁elongate	-12.232
▁combining	-12.232
aneous	-12.232
▁dragster	-12.232
▁vending	-12.232
▁cash	-12.232
▁webster	-12.232
▁camas	-12.232
▁blackheads	-12.232
▁neighborhood	-12.232
▁tugging	-12.232
▁jay	-12.232
▁disposition	-12.232
▁workstation	-12.232
▁deny	-12.232
▁spell	-12.232
▁arrest	-12.232
▁employee	-12.232
▁architecture	-12.232
▁oops	-12.232
ylic	-12.232
▁doubt	-12.232
▁swallow	-12.232
▁elli	-12.232
▁kidding	-12.232
iffin	-12.232
▁romantic	-12.2321
▁federa	-12.2321
metric	-12.2321
▁turtleneck	-12.2321
▁committed	-12.2321
▁urn	-12.2321
▁referee	-12.2321
▁attend	-12.2321
▁wiring	-12.2321
▁modifie	-12.2321
▁verde	-12.2321
▁enrich	-12.2321
▁motivation	-12.2321
▁entertain	-12.2321
▁trauma	-12.2321
▁chronicle	-12.2321
▁finesse	-12.2321
▁carving	-12.2321
▁reinforcement	-12.2321
▁contemporary	-12.2321
▁functionality	-12.2321
▁heck	-12.2321
▁continuous	-12.2321
▁severe	-12.2321
▁mileage	-12.2321
imple	-12.2321
▁recycle	-12.2321
▁undone	-12.2321
▁rachel	-12.2321
▁rind	-12.2321
▁drunk	-12.2321
▁tango	-12.2321
▁eric	-12.2321
▁saving	-12.2321
▁gust	-12.2321
▁respectful	-12.2321
▁sunday	-12.2321
▁germinat	-12.2321
▁saltwater	-12.2322
▁dramatically	-12.2322
▁drift	-12.2322
▁typing	-12.2322
▁bulls	-12.2322
▁interaction	-12.2322
▁skewers	-12.2322
▁kink	-12.2322
▁effortless	-12.2322
▁progressive	-12.2322
▁rach	-12.2322
aband	-12.2322
▁pleasing	-12.2322
▁unlock	-12.2322
▁haul	-12.2322
▁optical	-12.2322
mbled	-12.2322
▁intestines	-12.2322
▁selv	-12.2323
▁hoophouse	-12.2323
▁appa	-12.2323
▁relev	-12.2323
▁threaten	-12.2323
▁framesi	-12.2323
▁saut	-12.2323
_24-	-12.2323
▁emc	-12.2323
▁avon	-12.2323
▁blotting	-12.2323
▁mustard	-12.2323
▁brother	-12.2323
▁whiskers	-12.2323
▁shaun	-12.2323
▁james	-12.2323
▁springtime	-12.2324
▁footprint	-12.2324
▁encounter	-12.2324
▁lipslide	-12.2324
▁350	-12.2324
▁chipping	-12.2324
thetic	-12.2324
▁braking	-12.2324
▁peas	-12.2324
▁intent	-12.2324
▁cinch	-12.2324
▁vacat	-12.2324
▁improvement	-12.2324
▁moisten	-12.2325
▁seaside	-12.2325
▁340	-12.2325
▁sister	-12.2325
▁recently	-12.2325
▁squi	-12.2325
▁compression	-12.2325
▁gross	-12.2325
▁handyman	-12.2325
▁booth	-12.2325
▁inspection	-12.2325
▁ordinary	-12.2326
▁zin	-12.2326
▁hassle	-12.2326
▁objective	-12.2326
▁casing	-12.2326
▁durability	-12.2326
▁drier	-12.2326
▁crunches	-12.2326
ilian	-12.2327
▁admit	-12.2327
▁juli	-12.2327
▁124	-12.2327
▁toughness	-12.2329
▁bland	-12.2329
▁parry	-12.2329
▁frequency	-12.2329
▁popularity	-12.2329
▁117	-12.2329
▁motivated	-12.233
▁strapless	-12.233
▁accordingly	-12.233
▁bach	-12.233
▁vip	-12.2331
▁bandha	-12.2331
▁heartworm	-12.2331
▁peaches	-12.2331
▁buffer	-12.2331
▁electricity	-12.2332
▁submi	-12.2332
▁bandage	-12.2332
▁sweetness	-12.2333
erior	-12.2333
▁hatch	-12.2334
▁poorly	-12.2334
▁branches	-12.2334
▁megan	-12.2334
▁mindful	-12.2334
▁sailor	-12.2335
▁discouraged	-12.2335
▁buddy	-12.2335
▁cancer	-12.2336
▁carrie	-12.2336
▁approved	-12.2336
icia	-12.2336
▁stopper	-12.2336
▁funky	-12.2337
▁1800	-12.2337
▁watercolor	-12.2337
▁variable	-12.2337
▁116	-12.2337
▁177	-12.2337
perative	-12.2338
▁independently	-12.2338
▁134	-12.2338
▁adopt	-12.2339
▁beaten	-12.234
▁jonesy	-12.234
ionate	-12.234
▁148	-12.2342
▁289	-12.2343
▁cloudy	-12.2344
▁crunchy	-12.2344
athy	-12.2344
▁manufactured	-12.2344
▁coaches	-12.2344
▁stray	-12.2345
▁sara	-12.2345
disc	-12.2346
▁correction	-12.2346
▁114	-12.2346
▁slippery	-12.2347
▁productive	-12.2347
▁185	-12.2349
▁jas	-12.235
▁enjoyable	-12.2351
▁functional	-12.2352
gene	-12.2353
ponent	-12.2354
▁morse	-12.2354
▁duration	-12.2355
▁146	-12.2356
▁135	-12.2356
▁charl	-12.2356
▁successfully	-12.2357
▁assigned	-12.2357
▁lovers	-12.2357
▁beau	-12.236
▁published	-12.236
▁dj	-12.236
tional	-12.2364
▁153	-12.2365
▁196	-12.2366
▁mast	-12.2367
▁graden	-12.2373
▁bunches	-12.2377
chro	-12.2378
▁contractor	-12.2391
▁backpacker	-12.2394
mulated	-12.2398
▁propa	-12.2401
▁juggl	-12.2411
▁poly	-12.2425
▁medal	-12.2426
bility	-12.2439
▁divers	-12.2469
lori	-12.2485
▁pil	-12.2489
oven	-12.2495
▁chlorin	-12.2496
rik	-12.2587
▁$500	-12.2689
chian	-12.2698
cepti	-12.2742
▁manipulat	-12.2747
4_16-	-12.2759
▁tactical	-12.2829
rank	-12.2862
▁explod	-12.2907
▁sch	-12.2909
▁misc	-12.2922
▁pursua	-12.2923
▁cub	-12.2961
4_0-	-12.3015
▁lathe	-12.3144
4_10-	-12.3144
▁sali	-12.3155
4_13-	-12.3238
▁barbe	-12.3245
hoo	-12.3256
pes	-12.3284
ike	-12.3336
crump	-12.3349
▁woke	-12.3416
4_14-	-12.3475
▁cautio	-12.3518
4_9-	-12.3529
rising	-12.3536
idi	-12.3564
▁preserv	-12.368
▁lubricat	-12.4093
potters	-12.4157
caution	-12.4192
▁190	-12.4235
▁proportional	-12.4246
▁elevat	-12.4339
▁riv	-12.45
▁glaz	-12.4566
▁cultur	-12.4583
▁snapp	-12.467
gesture	-12.4734
string	-12.4871
mbie	-12.4944
▁rins	-12.4983
▁siz	-12.5087
103	-12.5112
gging	-12.5128
_20-	-12.5167
▁numeric	-12.5168
▁za	-12.5301
ification	-12.5328
4_21-	-12.5342
▁intensi	-12.5378
▁preset	-12.54
▁lung	-12.5421
▁scallop	-12.5431
▁crap	-12.5435
▁folk	-12.5437
▁resource	-12.5437
▁contamina	-12.5452
▁memori	-12.5461
▁annu	-12.5477
▁tradition	-12.5498
aving	-12.5525
corporate	-12.5548
▁inspir	-12.5577
▁quo	-12.5584
essive	-12.5587
4_20-	-12.559
place	-12.5597
▁incorporat	-12.5598
▁yea	-12.561
▁secur	-12.5613
print	-12.5614
▁boost	-12.5615
piece	-12.5619
▁structur	-12.562
duty	-12.5621
competitive	-12.5621
graduat	-12.5621
related	-12.5621
left	-12.5622
alcohol	-12.5622
quarter	-12.5622
shadow	-12.5622
firm	-12.5622
sheet	-12.5622
week	-12.5622
width	-12.5622
leather	-12.5623
cook	-12.5623
length	-12.5623
check	-12.5623
glue	-12.5623
type	-12.5623
help	-12.5623
again	-12.5623
which	-12.5623
hold	-12.5623
grip	-12.5623
brew	-12.5623
image	-12.5623
spin	-12.5625
undo	-12.5625
▁chrom	-12.5625
born	-12.5628
hole	-12.5628
paper	-12.5629
wipe	-12.563
▁dehydrat	-12.5632
▁encourag	-12.5634
▁torqu	-12.5637
▁approve	-12.5639
▁saturate	-12.564
▁frequenc	-12.5641
▁fluff	-12.5642
▁era	-12.5642
▁tannin	-12.5642
▁histor	-12.5643
▁conceal	-12.5647
▁recent	-12.5647
describ	-12.5647
▁ultimate	-12.5647
▁approximate	-12.5647
▁usual	-12.5648
noli	-12.5648
▁india	-12.5649
▁definite	-12.5649
▁thro	-12.5649
uddi	-12.565
▁intestin	-12.565
▁milli	-12.565
▁troph	-12.5651
▁tech	-12.5651
▁affiliat	-12.5652
▁construct	-12.5652
raham	-12.5652
▁chronic	-12.5652
▁avail	-12.5652
gnant	-12.5653
cogniz	-12.5653
▁reproduc	-12.5653
▁sacr	-12.5653
umeric	-12.5653
▁yell	-12.5653
▁differ	-12.5653
▁reflex	-12.5653
▁antibody	-12.5653
▁crimp	-12.5653
▁dishwash	-12.5653
▁grappl	-12.5653
▁shrink	-12.5653
=	-12.5653
avior	-12.5653
endorphin	-12.5653
ficient	-12.5653
foliant	-12.5653
fransisco	-12.5653
ontraindications	-12.5653
preposterous	-12.5653
responsibilities	-12.5653
responsive	-12.5653
scotch	-12.5653
sequent	-12.5653
twenties	-12.5653
▁abductors	-12.5653
▁academic	-12.5653
▁acupunctur	-12.5653
▁advertising	-12.5653
▁advisable	-12.5653
▁advocat	-12.5653
▁allergen	-12.5653
▁argue	-12.5653
▁artifact	-12.5653
▁astrology	-12.5653
▁attitude	-12.5653
▁attorney	-12.5653
▁australia	-12.5653
▁avocado	-12.5653
▁bancha	-12.5653
▁binocular	-12.5653
▁blossom	-12.5653
▁bouquet	-12.5653
▁bruise	-12.5653
▁bruising	-12.5653
▁bruschetta	-12.5653
▁buccola	-12.5653
▁buddhism	-12.5653
▁bunnies	-12.5653
▁capabilities	-12.5653
▁cappuccino	-12.5653
▁cauliflower	-12.5653
▁cavities	-12.5653
▁cereal	-12.5653
▁cheerlead	-12.5653
▁chiropractic	-12.5653
▁christopher	-12.5653
▁cinema	-12.5653
▁cleopatra	-12.5653
▁climax	-12.5653
▁closure	-12.5653
▁coffin	-12.5653
▁column	-12.5653
▁companion	-12.5653
▁confirmation	-12.5653
▁conversely	-12.5653
▁coordinator	-12.5653
▁coyote	-12.5653
▁cradle	-12.5653
▁dairy	-12.5653
▁database	-12.5653
▁deadbolt	-12.5653
▁deliberately	-12.5653
▁democrat	-12.5653
▁diagnostic	-12.5653
▁dietitian	-12.5653
▁discomfort	-12.5653
▁dislodged	-12.5653
▁draft	-12.5653
▁drown	-12.5653
▁effleurage	-12.5653
▁elaborate	-12.5653
▁elephant	-12.5653
▁embossing	-12.5653
▁entitle	-12.5653
▁etcetera	-12.5653
▁ethnic	-12.5653
▁etouffee	-12.5653
▁exacerbat	-12.5653
▁fajita	-12.5653
▁february	-12.5653
▁feisty	-12.5653
▁firefox	-12.5653
▁fitzpatrick	-12.5653
▁foliage	-12.5653
▁forefinger	-12.5653
▁freya	-12.5653
▁fridge	-12.5653
▁gallery	-12.5653
▁garbett	-12.5653
▁gargle	-12.5653
▁george	-12.5653
▁giraffe	-12.5653
▁glycogen	-12.5653
▁grime	-12.5653
▁grommet	-12.5653
▁handkerchief	-12.5653
▁handwriting	-12.5653
▁hemisphere	-12.5653
▁hemostats	-12.5653
▁humming	-12.5653
▁hydrangeas	-12.5653
▁identification	-12.5653
▁illegal	-12.5653
▁imbalance	-12.5653
▁implies	-12.5653
▁industries	-12.5653
▁interrupt	-12.5653
▁inventory	-12.5653
▁iridescen	-12.5653
▁itinerary	-12.5653
▁jonsey	-12.5653
▁karate	-12.5653
▁kleenex	-12.5653
▁labarda	-12.5653
▁library	-12.5653
▁literacy	-12.5653
▁lucifer	-12.5653
▁ludman	-12.5653
▁macrobiotic	-12.5653
▁meridian	-12.5653
▁microphone	-12.5653
▁military	-12.5653
▁mobber	-12.5653
▁monopoly	-12.5653
▁montana	-12.5653
▁mozzarella	-12.5653
▁muzzle	-12.5653
▁nebulizer	-12.5653
▁obstruct	-12.5653
▁october	-12.5653
▁omaha	-12.5653
▁oscar	-12.5653
▁oxidize	-12.5653
▁oysters	-12.5653
▁packaging	-12.5653
▁parakeet	-12.5653
▁pediatrics	-12.5653
▁pennsylvania	-12.5653
▁peppermint	-12.5653
▁peripheral	-12.5653
▁phillip	-12.5653
▁photocopy	-12.5653
▁physics	-12.5653
▁piranha	-12.5653
▁plaque	-12.5653
▁predictable	-12.5653
▁principal	-12.5653
▁privacy	-12.5653
▁puppet	-12.5653
▁quotations	-12.5653
▁reattach	-12.5653
▁refinish	-12.5653
▁rehydrate	-12.5653
▁replenish	-12.5653
▁republican	-12.5653
▁reservation	-12.5653
▁reservoir	-12.5653
▁resolution	-12.5653
▁resupply	-12.5653
▁robinson	-12.5653
▁rudy	-12.5653
▁saxophone	-12.5653
▁schnapps	-12.5653
▁scramble	-12.5653
▁scrambling	-12.5653
▁seascape	-12.5653
▁seatbelt	-12.5653
▁shannon	-12.5653
▁shoelace	-12.5653
▁shrub	-12.5653
▁simplified	-12.5653
▁situated	-12.5653
▁sleek	-12.5653
▁slender	-12.5653
▁sniff	-12.5653
▁spectrum	-12.5653
▁squeamish	-12.5653
▁stencil	-12.5653
▁substrate	-12.5653
▁surcingle	-12.5653
▁surgical	-12.5653
▁talent	-12.5653
▁technology	-12.5653
▁thursdays	-12.5653
▁tiffany	-12.5653
▁toothpick	-12.5653
▁trample	-12.5653
▁unattended	-12.5653
▁universal	-12.5653
▁universe	-12.5653
▁unusual	-12.5653
▁wanna	-12.5653
▁warranties	-12.5653
▁wednesday	-12.5653
▁whitley	-12.5653
▁workshop	-12.5653
▁yogurt	-12.5653
urethane	-12.5653
▁cornbread	-12.5653
▁crime	-12.5653
▁dread	-12.5653
▁fidget	-12.5653
▁intertwine	-12.5653
▁mathematic	-12.5653
▁palpat	-12.5653
▁peck	-12.5653
▁scuff	-12.5653
scilla	-12.5653
▁acetone	-12.5653
▁allergy	-12.5653
▁blaze	-12.5653
▁craze	-12.5653
▁ebay	-12.5653
▁editing	-12.5653
▁erupt	-12.5653
▁executi	-12.5653
▁fancier	-12.5653
▁freak	-12.5653
▁kiwi	-12.5653
▁margin	-12.5653
▁rainbow	-12.5653
▁resort	-12.5653
▁shingle	-12.5653
▁sparring	-12.5653
▁sterile	-12.5653
▁struts	-12.5653
▁trough	-12.5653
cotta	-12.5653
irritating	-12.5653
satisfaction	-12.5653
▁armpit	-12.5653
▁chestnut	-12.5653
▁dupli	-12.5653
▁elliot	-12.5653
▁hovering	-12.5653
▁huh	-12.5653
▁karen	-12.5653
▁liking	-12.5653
▁pokemon	-12.5653
▁quadrup	-12.5653
▁relieving	-12.5653
▁ricta	-12.5653
▁tableau	-12.5653
myspace	-12.5653
▁costuming	-12.5653
▁daddy	-12.5653
▁shank	-12.5653
▁sidewall	-12.5653
▁classmate	-12.5653
▁loyal	-12.5653
▁luke	-12.5653
▁apron	-12.5653
▁euro	-12.5653
▁flier	-12.5653
▁haunt	-12.5653
▁orchid	-12.5653
▁prettie	-12.5653
▁dialog	-12.5653
▁loft	-12.5653
▁trout	-12.5653
▁uppercut	-12.5653
▁biography	-12.5653
▁claim	-12.5653
▁dozen	-12.5653
▁zig	-12.5653
▁aphid	-12.5653
▁dandy	-12.5653
▁feces	-12.5653
▁lease	-12.5653
▁goofy	-12.5653
▁hugg	-12.5653
▁lobster	-12.5653
▁iodize	-12.5653
▁rugged	-12.5653
▁struggl	-12.5653
▁granted	-12.5653
▁ornament	-12.5653
▁export	-12.5653
▁intuiti	-12.5653
▁joseph	-12.5653
▁pedest	-12.5653
▁alexson	-12.5653
▁kelly	-12.5653
▁miserable	-12.5653
▁auger	-12.5653
▁conclusion	-12.5653
▁undercut	-12.5654
cient	-12.5654
▁capture	-12.5654
▁innovati	-12.5654
▁penny	-12.5654
▁infra	-12.5654
▁instant	-12.5654
▁rasp	-12.5654
▁absorbent	-12.5654
pronounce	-12.5654
▁canada	-12.5654
▁sieve	-12.5654
▁navasana	-12.5654
▁pacing	-12.5654
clarke	-12.5654
▁entries	-12.5654
▁among	-12.5654
▁cpr	-12.5654
▁intro	-12.5654
▁buggy	-12.5654
▁hoof	-12.5654
ulent	-12.5654
▁civilization	-12.5654
▁skillet	-12.5654
▁creation	-12.5654
▁narr	-12.5654
▁crest	-12.5654
▁genre	-12.5654
▁poison	-12.5654
▁eyelets	-12.5654
▁ornate	-12.5654
▁begun	-12.5654
▁sherry	-12.5654
▁$100	-12.5654
▁monst	-12.5654
▁shading	-12.5654
▁decaffeinated	-12.5654
▁bomb	-12.5654
▁repack	-12.5654
▁yum	-12.5654
▁hump	-12.5654
▁lame	-12.5654
▁roundworms	-12.5654
plex	-12.5654
▁commitment	-12.5654
▁sacrum	-12.5654
▁alco	-12.5654
▁forgotten	-12.5654
▁inhibit	-12.5654
▁ranking	-12.5654
▁thermo	-12.5654
▁interactive	-12.5654
▁midpoint	-12.5654
▁interpretation	-12.5654
▁description	-12.5654
▁investment	-12.5654
▁placemat	-12.5654
▁hue	-12.5655
▁precaution	-12.5655
▁notebook	-12.5655
▁punish	-12.5655
▁unplugged	-12.5655
▁phonebook	-12.5655
▁confinement	-12.5655
▁stylus	-12.5655
▁surfboard	-12.5655
▁wakeboard	-12.5655
▁imagination	-12.5655
▁sarah	-12.5655
▁mommy	-12.5655
▁mache	-12.5655
▁haze	-12.5655
▁unload	-12.5655
▁foolish	-12.5655
(	-13.0623
+	-13.0653
|	-14.0653
[	-14.7457
$	-14.7458
